{
  "version": "1.0",
  "truncation": null,
  "padding": null,
  "added_tokens": [
    {
      "id": 0,
      "special": true,
      "content": "[UNK]",
      "single_word": false,
      "lstrip": false,
      "rstrip": false,
      "normalized": false
    },
    {
      "id": 1,
      "special": true,
      "content": "[PAD]",
      "single_word": false,
      "lstrip": false,
      "rstrip": false,
      "normalized": false
    }
  ],
  "normalizer": null,
  "pre_tokenizer": {
    "type": "Whitespace"
  },
  "post_processor": null,
  "decoder": null,
  "model": {
    "type": "BPE",
    "dropout": null,
    "unk_token": "[UNK]",
    "continuing_subword_prefix": null,
    "end_of_word_suffix": null,
    "fuse_unk": false,
    "vocab": {
      "[UNK]": 0,
      "[PAD]": 1,
      "!": 2,
      "\"": 3,
      "#": 4,
      "$": 5,
      "%": 6,
      "&": 7,
      "'": 8,
      "(": 9,
      ")": 10,
      "*": 11,
      "+": 12,
      ",": 13,
      "-": 14,
      ".": 15,
      "/": 16,
      "0": 17,
      "1": 18,
      "2": 19,
      "3": 20,
      "4": 21,
      "5": 22,
      "6": 23,
      "7": 24,
      "8": 25,
      "9": 26,
      ":": 27,
      ";": 28,
      "<": 29,
      "=": 30,
      ">": 31,
      "?": 32,
      "@": 33,
      "A": 34,
      "B": 35,
      "C": 36,
      "D": 37,
      "E": 38,
      "F": 39,
      "G": 40,
      "H": 41,
      "I": 42,
      "J": 43,
      "K": 44,
      "L": 45,
      "M": 46,
      "N": 47,
      "O": 48,
      "P": 49,
      "Q": 50,
      "R": 51,
      "S": 52,
      "T": 53,
      "U": 54,
      "V": 55,
      "W": 56,
      "X": 57,
      "Y": 58,
      "Z": 59,
      "[": 60,
      "\\": 61,
      "]": 62,
      "^": 63,
      "_": 64,
      "`": 65,
      "a": 66,
      "b": 67,
      "c": 68,
      "d": 69,
      "e": 70,
      "f": 71,
      "g": 72,
      "h": 73,
      "i": 74,
      "j": 75,
      "k": 76,
      "l": 77,
      "m": 78,
      "n": 79,
      "o": 80,
      "p": 81,
      "q": 82,
      "r": 83,
      "s": 84,
      "t": 85,
      "u": 86,
      "v": 87,
      "w": 88,
      "x": 89,
      "y": 90,
      "z": 91,
      "{": 92,
      "|": 93,
      "}": 94,
      "~": 95,
      "": 96,
      "": 97,
      "": 98,
      "": 99,
      "¡": 100,
      "¢": 101,
      "£": 102,
      "¥": 103,
      "§": 104,
      "©": 105,
      "«": 106,
      "­": 107,
      "®": 108,
      "¯": 109,
      "°": 110,
      "±": 111,
      "²": 112,
      "³": 113,
      "´": 114,
      "µ": 115,
      "¶": 116,
      "·": 117,
      "¹": 118,
      "º": 119,
      "»": 120,
      "¼": 121,
      "½": 122,
      "¾": 123,
      "¿": 124,
      "À": 125,
      "Á": 126,
      "Â": 127,
      "Ä": 128,
      "Å": 129,
      "Æ": 130,
      "Ç": 131,
      "È": 132,
      "É": 133,
      "Ì": 134,
      "Í": 135,
      "Î": 136,
      "Ñ": 137,
      "Ó": 138,
      "Ô": 139,
      "Ö": 140,
      "×": 141,
      "Ø": 142,
      "Ú": 143,
      "Ü": 144,
      "Ý": 145,
      "Þ": 146,
      "ß": 147,
      "à": 148,
      "á": 149,
      "â": 150,
      "ã": 151,
      "ä": 152,
      "å": 153,
      "æ": 154,
      "ç": 155,
      "è": 156,
      "é": 157,
      "ê": 158,
      "ë": 159,
      "ì": 160,
      "í": 161,
      "î": 162,
      "ï": 163,
      "ð": 164,
      "ñ": 165,
      "ò": 166,
      "ó": 167,
      "ô": 168,
      "õ": 169,
      "ö": 170,
      "÷": 171,
      "ø": 172,
      "ù": 173,
      "ú": 174,
      "û": 175,
      "ü": 176,
      "ý": 177,
      "þ": 178,
      "ÿ": 179,
      "Ā": 180,
      "ā": 181,
      "ă": 182,
      "ą": 183,
      "Ć": 184,
      "ć": 185,
      "Č": 186,
      "č": 187,
      "Ď": 188,
      "Đ": 189,
      "đ": 190,
      "ē": 191,
      "ė": 192,
      "ę": 193,
      "ě": 194,
      "ğ": 195,
      "ġ": 196,
      "Ħ": 197,
      "ħ": 198,
      "ĩ": 199,
      "Ī": 200,
      "ī": 201,
      "İ": 202,
      "ı": 203,
      "ķ": 204,
      "Ľ": 205,
      "ľ": 206,
      "Ł": 207,
      "ł": 208,
      "ń": 209,
      "ņ": 210,
      "ň": 211,
      "ŋ": 212,
      "Ō": 213,
      "ō": 214,
      "ŏ": 215,
      "ő": 216,
      "Œ": 217,
      "œ": 218,
      "Ř": 219,
      "ř": 220,
      "Ś": 221,
      "ś": 222,
      "Ş": 223,
      "ş": 224,
      "Š": 225,
      "š": 226,
      "Ţ": 227,
      "ţ": 228,
      "ť": 229,
      "ũ": 230,
      "ū": 231,
      "ŭ": 232,
      "ů": 233,
      "ų": 234,
      "ŵ": 235,
      "ŷ": 236,
      "Ź": 237,
      "ź": 238,
      "Ż": 239,
      "ż": 240,
      "Ž": 241,
      "ž": 242,
      "Ə": 243,
      "ƒ": 244,
      "ơ": 245,
      "ư": 246,
      "ǂ": 247,
      "ǎ": 248,
      "ǐ": 249,
      "ǒ": 250,
      "ǔ": 251,
      "ǫ": 252,
      "Ș": 253,
      "ș": 254,
      "Ț": 255,
      "ț": 256,
      "ɐ": 257,
      "ɑ": 258,
      "ɒ": 259,
      "ɓ": 260,
      "ɔ": 261,
      "ɕ": 262,
      "ɖ": 263,
      "ɗ": 264,
      "ə": 265,
      "ɛ": 266,
      "ɟ": 267,
      "ɡ": 268,
      "ɢ": 269,
      "ɣ": 270,
      "ɦ": 271,
      "ɧ": 272,
      "ɨ": 273,
      "ɪ": 274,
      "ɬ": 275,
      "ɯ": 276,
      "ɲ": 277,
      "ɴ": 278,
      "ɵ": 279,
      "ɸ": 280,
      "ɻ": 281,
      "ɾ": 282,
      "ʀ": 283,
      "ʁ": 284,
      "ʂ": 285,
      "ʃ": 286,
      "ʇ": 287,
      "ʈ": 288,
      "ʊ": 289,
      "ʋ": 290,
      "ʌ": 291,
      "ʍ": 292,
      "ʎ": 293,
      "ʒ": 294,
      "ʔ": 295,
      "ʕ": 296,
      "ʘ": 297,
      "ʝ": 298,
      "ʟ": 299,
      "ʰ": 300,
      "ʲ": 301,
      "ʷ": 302,
      "ʻ": 303,
      "ʼ": 304,
      "ʾ": 305,
      "ʿ": 306,
      "ˀ": 307,
      "ˁ": 308,
      "ˈ": 309,
      "ˌ": 310,
      "ː": 311,
      "˔": 312,
      "˘": 313,
      "˚": 314,
      "˞": 315,
      "ˠ": 316,
      "ˤ": 317,
      "˥": 318,
      "˦": 319,
      "˧": 320,
      "˨": 321,
      "˩": 322,
      "̀": 323,
      "́": 324,
      "̂": 325,
      "̃": 326,
      "̄": 327,
      "̆": 328,
      "̈": 329,
      "̊": 330,
      "̌": 331,
      "̍": 332,
      "̐": 333,
      "̚": 334,
      "̝": 335,
      "̞": 336,
      "̟": 337,
      "̠": 338,
      "̣": 339,
      "̤": 340,
      "̥": 341,
      "̧": 342,
      "̩": 343,
      "̪": 344,
      "̯": 345,
      "̰": 346,
      "̱": 347,
      "̲": 348,
      "̺": 349,
      "̽": 350,
      "͍": 351,
      "͘": 352,
      "͜": 353,
      "͡": 354,
      "Α": 355,
      "Β": 356,
      "Γ": 357,
      "Δ": 358,
      "Ε": 359,
      "Η": 360,
      "Θ": 361,
      "Ι": 362,
      "Κ": 363,
      "Λ": 364,
      "Μ": 365,
      "Ν": 366,
      "Ξ": 367,
      "Ο": 368,
      "Π": 369,
      "Σ": 370,
      "Τ": 371,
      "Φ": 372,
      "Χ": 373,
      "Ψ": 374,
      "Ω": 375,
      "ά": 376,
      "έ": 377,
      "ή": 378,
      "ί": 379,
      "α": 380,
      "β": 381,
      "γ": 382,
      "δ": 383,
      "ε": 384,
      "ζ": 385,
      "η": 386,
      "θ": 387,
      "ι": 388,
      "κ": 389,
      "λ": 390,
      "μ": 391,
      "ν": 392,
      "ξ": 393,
      "ο": 394,
      "π": 395,
      "ρ": 396,
      "ς": 397,
      "σ": 398,
      "τ": 399,
      "υ": 400,
      "φ": 401,
      "χ": 402,
      "ψ": 403,
      "ω": 404,
      "ό": 405,
      "ύ": 406,
      "ώ": 407,
      "ϕ": 408,
      "Ј": 409,
      "А": 410,
      "Б": 411,
      "В": 412,
      "Г": 413,
      "Д": 414,
      "Е": 415,
      "З": 416,
      "И": 417,
      "Й": 418,
      "К": 419,
      "М": 420,
      "Н": 421,
      "О": 422,
      "П": 423,
      "Р": 424,
      "С": 425,
      "Т": 426,
      "Ч": 427,
      "Ш": 428,
      "Я": 429,
      "а": 430,
      "б": 431,
      "в": 432,
      "г": 433,
      "д": 434,
      "е": 435,
      "ж": 436,
      "з": 437,
      "и": 438,
      "й": 439,
      "к": 440,
      "л": 441,
      "м": 442,
      "н": 443,
      "о": 444,
      "п": 445,
      "р": 446,
      "с": 447,
      "т": 448,
      "у": 449,
      "х": 450,
      "ц": 451,
      "ч": 452,
      "ш": 453,
      "ъ": 454,
      "ы": 455,
      "ь": 456,
      "э": 457,
      "ю": 458,
      "я": 459,
      "ё": 460,
      "і": 461,
      "ј": 462,
      "љ": 463,
      "ў": 464,
      "Կ": 465,
      "Հ": 466,
      "Մ": 467,
      "Ս": 468,
      "ա": 469,
      "բ": 470,
      "ե": 471,
      "թ": 472,
      "ի": 473,
      "կ": 474,
      "հ": 475,
      "ղ": 476,
      "յ": 477,
      "ն": 478,
      "շ": 479,
      "ո": 480,
      "պ": 481,
      "ս": 482,
      "վ": 483,
      "տ": 484,
      "ր": 485,
      "ց": 486,
      "ւ": 487,
      "ք": 488,
      "֤": 489,
      "֫": 490,
      "ֵ": 491,
      "ֶ": 492,
      "ּ": 493,
      "א": 494,
      "ב": 495,
      "ג": 496,
      "ד": 497,
      "ו": 498,
      "ח": 499,
      "י": 500,
      "כ": 501,
      "ל": 502,
      "ם": 503,
      "מ": 504,
      "ן": 505,
      "נ": 506,
      "ס": 507,
      "ע": 508,
      "צ": 509,
      "ר": 510,
      "ש": 511,
      "ת": 512,
      "،": 513,
      "ء": 514,
      "أ": 515,
      "إ": 516,
      "ا": 517,
      "ب": 518,
      "ة": 519,
      "ت": 520,
      "ث": 521,
      "ج": 522,
      "ح": 523,
      "خ": 524,
      "د": 525,
      "ر": 526,
      "ز": 527,
      "س": 528,
      "ش": 529,
      "ص": 530,
      "ط": 531,
      "ع": 532,
      "غ": 533,
      "ف": 534,
      "ق": 535,
      "ك": 536,
      "ل": 537,
      "م": 538,
      "ن": 539,
      "ه": 540,
      "و": 541,
      "ي": 542,
      "ی": 543,
      "ं": 544,
      "अ": 545,
      "आ": 546,
      "उ": 547,
      "क": 548,
      "ग": 549,
      "ट": 550,
      "ड": 551,
      "त": 552,
      "द": 553,
      "न": 554,
      "प": 555,
      "ब": 556,
      "भ": 557,
      "म": 558,
      "य": 559,
      "र": 560,
      "ल": 561,
      "श": 562,
      "ष": 563,
      "स": 564,
      "ह": 565,
      "़": 566,
      "ा": 567,
      "ि": 568,
      "ी": 569,
      "ु": 570,
      "े": 571,
      "ो": 572,
      "्": 573,
      "।": 574,
      "॥": 575,
      "ক": 576,
      "ত": 577,
      "ন": 578,
      "ব": 579,
      "ম": 580,
      "ল": 581,
      "়": 582,
      "া": 583,
      "ি": 584,
      "্": 585,
      "க": 586,
      "ன": 587,
      "ள": 588,
      "்": 589,
      "్": 590,
      "್": 591,
      "്": 592,
      "්": 593,
      "ก": 594,
      "ข": 595,
      "ง": 596,
      "จ": 597,
      "ช": 598,
      "ฐ": 599,
      "ณ": 600,
      "ต": 601,
      "ท": 602,
      "น": 603,
      "ป": 604,
      "พ": 605,
      "ม": 606,
      "ย": 607,
      "ร": 608,
      "ล": 609,
      "ว": 610,
      "ะ": 611,
      "ั": 612,
      "า": 613,
      "ิ": 614,
      "ี": 615,
      "ู": 616,
      "฿": 617,
      "เ": 618,
      "แ": 619,
      "็": 620,
      "่": 621,
      "้": 622,
      "์": 623,
      "་": 624,
      "།": 625,
      "င": 626,
      "ဆ": 627,
      "န": 628,
      "ရ": 629,
      "္": 630,
      "်": 631,
      "გ": 632,
      "დ": 633,
      "ვ": 634,
      "ზ": 635,
      "ი": 636,
      "კ": 637,
      "ო": 638,
      "რ": 639,
      "ს": 640,
      "უ": 641,
      "ც": 642,
      "ძ": 643,
      "წ": 644,
      "ხ": 645,
      "ჯ": 646,
      "჻": 647,
      "፡": 648,
      "ᛃ": 649,
      "ᛋ": 650,
      "ᛟ": 651,
      "ត": 652,
      "ន": 653,
      "ព": 654,
      "ម": 655,
      "រ": 656,
      "ស": 657,
      "ហ": 658,
      "ី": 659,
      "ុ": 660,
      "ោ": 661,
      "ះ": 662,
      "់": 663,
      "្": 664,
      "᷉": 665,
      "ḍ": 666,
      "ḑ": 667,
      "Ḥ": 668,
      "ḥ": 669,
      "ḩ": 670,
      "ḷ": 671,
      "ḻ": 672,
      "ṃ": 673,
      "ṅ": 674,
      "ṇ": 675,
      "ṉ": 676,
      "ṛ": 677,
      "ṟ": 678,
      "Ṣ": 679,
      "ṣ": 680,
      "ṭ": 681,
      "ṯ": 682,
      "ạ": 683,
      "ả": 684,
      "ấ": 685,
      "ầ": 686,
      "ẩ": 687,
      "ẫ": 688,
      "ậ": 689,
      "ắ": 690,
      "ằ": 691,
      "ẵ": 692,
      "ặ": 693,
      "ẹ": 694,
      "ế": 695,
      "ề": 696,
      "ể": 697,
      "ễ": 698,
      "ệ": 699,
      "ị": 700,
      "Ọ": 701,
      "ọ": 702,
      "ỏ": 703,
      "ố": 704,
      "ồ": 705,
      "ổ": 706,
      "ỗ": 707,
      "ộ": 708,
      "ớ": 709,
      "ờ": 710,
      "ở": 711,
      "ợ": 712,
      "ụ": 713,
      "ủ": 714,
      "ứ": 715,
      "ừ": 716,
      "ử": 717,
      "ữ": 718,
      "ự": 719,
      "ỳ": 720,
      "ỵ": 721,
      "ỹ": 722,
      "ἀ": 723,
      "ἄ": 724,
      "Ἀ": 725,
      "ἐ": 726,
      "Ἕ": 727,
      "ἡ": 728,
      "Ἠ": 729,
      "ἰ": 730,
      "ἱ": 731,
      "ἵ": 732,
      "ἶ": 733,
      "Ἰ": 734,
      "ὁ": 735,
      "Ὄ": 736,
      "ὐ": 737,
      "ὑ": 738,
      "ὡ": 739,
      "ὰ": 740,
      "ὲ": 741,
      "ὴ": 742,
      "ὶ": 743,
      "ὸ": 744,
      "ὺ": 745,
      "ὼ": 746,
      "ᾶ": 747,
      "ῆ": 748,
      "ῖ": 749,
      "ῦ": 750,
      "Ῥ": 751,
      "ῶ": 752,
      "ῷ": 753,
      "​": 754,
      "‌": 755,
      "‍": 756,
      "‐": 757,
      "‑": 758,
      "‒": 759,
      "–": 760,
      "—": 761,
      "―": 762,
      "‘": 763,
      "’": 764,
      "‚": 765,
      "“": 766,
      "”": 767,
      "„": 768,
      "†": 769,
      "‡": 770,
      "•": 771,
      "…": 772,
      "‰": 773,
      "′": 774,
      "″": 775,
      "※": 776,
      "‼": 777,
      "‿": 778,
      "⁄": 779,
      "⁊": 780,
      "⁡": 781,
      "⁺": 782,
      "₁": 783,
      "₂": 784,
      "₃": 785,
      "₡": 786,
      "₣": 787,
      "₤": 788,
      "₦": 789,
      "₨": 790,
      "₩": 791,
      "₫": 792,
      "€": 793,
      "₱": 794,
      "₹": 795,
      "℃": 796,
      "ℓ": 797,
      "№": 798,
      "™": 799,
      "⅓": 800,
      "⅔": 801,
      "⅛": 802,
      "⅜": 803,
      "⅝": 804,
      "⅞": 805,
      "←": 806,
      "↑": 807,
      "→": 808,
      "↓": 809,
      "↔": 810,
      "↗": 811,
      "↦": 812,
      "↪": 813,
      "⇄": 814,
      "⇌": 815,
      "∀": 816,
      "∂": 817,
      "∆": 818,
      "∈": 819,
      "∑": 820,
      "−": 821,
      "∕": 822,
      "∖": 823,
      "∗": 824,
      "∘": 825,
      "√": 826,
      "∝": 827,
      "∞": 828,
      "∩": 829,
      "∪": 830,
      "∴": 831,
      "∼": 832,
      "≈": 833,
      "≠": 834,
      "≡": 835,
      "≢": 836,
      "≤": 837,
      "≥": 838,
      "≪": 839,
      "⊂": 840,
      "⊕": 841,
      "⊗": 842,
      "⊙": 843,
      "⊥": 844,
      "⋅": 845,
      "⋯": 846,
      "⌊": 847,
      "⌋": 848,
      "①": 849,
      "②": 850,
      "④": 851,
      "█": 852,
      "▲": 853,
      "★": 854,
      "☆": 855,
      "☉": 856,
      "♀": 857,
      "♠": 858,
      "♣": 859,
      "♥": 860,
      "♦": 861,
      "♩": 862,
      "♪": 863,
      "♭": 864,
      "♮": 865,
      "♯": 866,
      "⟦": 867,
      "⟧": 868,
      "⟨": 869,
      "⟩": 870,
      "⩽": 871,
      "ⴷ": 872,
      "、": 873,
      "。": 874,
      "〈": 875,
      "〉": 876,
      "「": 877,
      "」": 878,
      "『": 879,
      "』": 880,
      "〜": 881,
      "あ": 882,
      "い": 883,
      "ぅ": 884,
      "う": 885,
      "お": 886,
      "か": 887,
      "が": 888,
      "き": 889,
      "く": 890,
      "ぐ": 891,
      "こ": 892,
      "さ": 893,
      "し": 894,
      "じ": 895,
      "す": 896,
      "ず": 897,
      "せ": 898,
      "た": 899,
      "ち": 900,
      "つ": 901,
      "て": 902,
      "と": 903,
      "ど": 904,
      "な": 905,
      "の": 906,
      "は": 907,
      "ば": 908,
      "ふ": 909,
      "へ": 910,
      "ぽ": 911,
      "ま": 912,
      "み": 913,
      "め": 914,
      "よ": 915,
      "ら": 916,
      "り": 917,
      "る": 918,
      "ん": 919,
      "ァ": 920,
      "ア": 921,
      "ィ": 922,
      "イ": 923,
      "ウ": 924,
      "ェ": 925,
      "エ": 926,
      "ォ": 927,
      "オ": 928,
      "カ": 929,
      "ガ": 930,
      "キ": 931,
      "ギ": 932,
      "ク": 933,
      "グ": 934,
      "ケ": 935,
      "コ": 936,
      "ゴ": 937,
      "サ": 938,
      "ザ": 939,
      "シ": 940,
      "ジ": 941,
      "ス": 942,
      "ズ": 943,
      "セ": 944,
      "ゼ": 945,
      "ソ": 946,
      "タ": 947,
      "ダ": 948,
      "チ": 949,
      "ッ": 950,
      "ツ": 951,
      "テ": 952,
      "デ": 953,
      "ト": 954,
      "ド": 955,
      "ナ": 956,
      "ニ": 957,
      "ノ": 958,
      "ハ": 959,
      "バ": 960,
      "パ": 961,
      "ヒ": 962,
      "ビ": 963,
      "フ": 964,
      "ブ": 965,
      "プ": 966,
      "ベ": 967,
      "ペ": 968,
      "ボ": 969,
      "ポ": 970,
      "マ": 971,
      "ミ": 972,
      "ム": 973,
      "メ": 974,
      "モ": 975,
      "ャ": 976,
      "ヤ": 977,
      "ュ": 978,
      "ユ": 979,
      "ョ": 980,
      "ラ": 981,
      "リ": 982,
      "ル": 983,
      "レ": 984,
      "ロ": 985,
      "ワ": 986,
      "ン": 987,
      "ヴ": 988,
      "・": 989,
      "ー": 990,
      "一": 991,
      "三": 992,
      "上": 993,
      "下": 994,
      "不": 995,
      "丑": 996,
      "世": 997,
      "个": 998,
      "久": 999,
      "之": 1000,
      "乙": 1001,
      "二": 1002,
      "五": 1003,
      "亦": 1004,
      "京": 1005,
      "人": 1006,
      "介": 1007,
      "仙": 1008,
      "令": 1009,
      "伝": 1010,
      "住": 1011,
      "佛": 1012,
      "作": 1013,
      "併": 1014,
      "侠": 1015,
      "個": 1016,
      "催": 1017,
      "像": 1018,
      "光": 1019,
      "内": 1020,
      "写": 1021,
      "冴": 1022,
      "净": 1023,
      "凪": 1024,
      "分": 1025,
      "列": 1026,
      "刘": 1027,
      "初": 1028,
      "判": 1029,
      "別": 1030,
      "前": 1031,
      "剛": 1032,
      "剣": 1033,
      "劇": 1034,
      "動": 1035,
      "勝": 1036,
      "北": 1037,
      "匹": 1038,
      "千": 1039,
      "卒": 1040,
      "南": 1041,
      "博": 1042,
      "厘": 1043,
      "双": 1044,
      "台": 1045,
      "号": 1046,
      "同": 1047,
      "名": 1048,
      "君": 1049,
      "呼": 1050,
      "哈": 1051,
      "四": 1052,
      "回": 1053,
      "国": 1054,
      "國": 1055,
      "土": 1056,
      "坂": 1057,
      "場": 1058,
      "境": 1059,
      "士": 1060,
      "外": 1061,
      "大": 1062,
      "天": 1063,
      "太": 1064,
      "女": 1065,
      "姉": 1066,
      "婷": 1067,
      "子": 1068,
      "字": 1069,
      "季": 1070,
      "孩": 1071,
      "守": 1072,
      "宋": 1073,
      "宗": 1074,
      "寔": 1075,
      "寺": 1076,
      "小": 1077,
      "少": 1078,
      "尾": 1079,
      "巨": 1080,
      "廷": 1081,
      "式": 1082,
      "弘": 1083,
      "张": 1084,
      "張": 1085,
      "彼": 1086,
      "後": 1087,
      "心": 1088,
      "思": 1089,
      "愛": 1090,
      "憲": 1091,
      "戦": 1092,
      "房": 1093,
      "所": 1094,
      "撃": 1095,
      "攻": 1096,
      "新": 1097,
      "方": 1098,
      "日": 1099,
      "旦": 1100,
      "早": 1101,
      "星": 1102,
      "春": 1103,
      "時": 1104,
      "書": 1105,
      "月": 1106,
      "朝": 1107,
      "木": 1108,
      "本": 1109,
      "李": 1110,
      "杜": 1111,
      "束": 1112,
      "条": 1113,
      "東": 1114,
      "松": 1115,
      "枚": 1116,
      "條": 1117,
      "植": 1118,
      "椎": 1119,
      "楽": 1120,
      "様": 1121,
      "機": 1122,
      "正": 1123,
      "武": 1124,
      "歩": 1125,
      "死": 1126,
      "殻": 1127,
      "氏": 1128,
      "民": 1129,
      "気": 1130,
      "氣": 1131,
      "水": 1132,
      "氷": 1133,
      "氾": 1134,
      "法": 1135,
      "活": 1136,
      "流": 1137,
      "浅": 1138,
      "海": 1139,
      "溜": 1140,
      "瀬": 1141,
      "火": 1142,
      "無": 1143,
      "版": 1144,
      "特": 1145,
      "王": 1146,
      "瓦": 1147,
      "生": 1148,
      "用": 1149,
      "田": 1150,
      "町": 1151,
      "界": 1152,
      "畫": 1153,
      "皮": 1154,
      "真": 1155,
      "礮": 1156,
      "神": 1157,
      "秋": 1158,
      "積": 1159,
      "空": 1160,
      "章": 1161,
      "箇": 1162,
      "節": 1163,
      "米": 1164,
      "約": 1165,
      "紋": 1166,
      "綾": 1167,
      "緑": 1168,
      "編": 1169,
      "群": 1170,
      "羽": 1171,
      "耕": 1172,
      "聖": 1173,
      "肖": 1174,
      "膺": 1175,
      "芝": 1176,
      "花": 1177,
      "草": 1178,
      "莊": 1179,
      "蛍": 1180,
      "街": 1181,
      "裁": 1182,
      "装": 1183,
      "西": 1184,
      "見": 1185,
      "語": 1186,
      "説": 1187,
      "議": 1188,
      "词": 1189,
      "谷": 1190,
      "路": 1191,
      "軍": 1192,
      "転": 1193,
      "輝": 1194,
      "逆": 1195,
      "進": 1196,
      "道": 1197,
      "遠": 1198,
      "邪": 1199,
      "部": 1200,
      "野": 1201,
      "量": 1202,
      "金": 1203,
      "銀": 1204,
      "銖": 1205,
      "錬": 1206,
      "隊": 1207,
      "隴": 1208,
      "隻": 1209,
      "雄": 1210,
      "集": 1211,
      "雪": 1212,
      "零": 1213,
      "靈": 1214,
      "青": 1215,
      "韓": 1216,
      "風": 1217,
      "鬼": 1218,
      "魂": 1219,
      "魄": 1220,
      "魔": 1221,
      "鼓": 1222,
      "거": 1223,
      "루": 1224,
      "마": 1225,
      "막": 1226,
      "말": 1227,
      "사": 1228,
      "인": 1229,
      "전": 1230,
      "지": 1231,
      "짓": 1232,
      "투": 1233,
      "하": 1234,
      "ﬁ": 1235,
      "﻿": 1236,
      "！": 1237,
      "＆": 1238,
      "（": 1239,
      "）": 1240,
      "，": 1241,
      "－": 1242,
      "：": 1243,
      "＝": 1244,
      "？": 1245,
      "～": 1246,
      "｢": 1247,
      "･": 1248,
      "￥": 1249,
      "th": 1250,
      "in": 1251,
      "er": 1252,
      "an": 1253,
      "the": 1254,
      "on": 1255,
      "ed": 1256,
      "re": 1257,
      "at": 1258,
      "en": 1259,
      "or": 1260,
      "al": 1261,
      "st": 1262,
      "ar": 1263,
      "and": 1264,
      "as": 1265,
      "of": 1266,
      "ing": 1267,
      "es": 1268,
      "to": 1269,
      "is": 1270,
      "it": 1271,
      "ou": 1272,
      "ic": 1273,
      "ion": 1274,
      "le": 1275,
      "he": 1276,
      "ro": 1277,
      "il": 1278,
      "ac": 1279,
      "ent": 1280,
      "ad": 1281,
      "se": 1282,
      "un": 1283,
      "am": 1284,
      "om": 1285,
      "be": 1286,
      "ly": 1287,
      "was": 1288,
      "for": 1289,
      "ch": 1290,
      "ve": 1291,
      "de": 1292,
      "ur": 1293,
      "ol": 1294,
      "ir": 1295,
      "The": 1296,
      "im": 1297,
      "-@": 1298,
      "@-@": 1299,
      "ig": 1300,
      "ver": 1301,
      "ter": 1302,
      "wh": 1303,
      "ow": 1304,
      "ith": 1305,
      "ce": 1306,
      "ay": 1307,
      "con": 1308,
      "id": 1309,
      "ation": 1310,
      "ct": 1311,
      "with": 1312,
      "that": 1313,
      "ag": 1314,
      "te": 1315,
      "by": 1316,
      "us": 1317,
      "ot": 1318,
      "ere": 1319,
      "el": 1320,
      "ri": 1321,
      "ul": 1322,
      "ap": 1323,
      "ut": 1324,
      "19": 1325,
      "et": 1326,
      "res": 1327,
      "ain": 1328,
      "ers": 1329,
      "op": 1330,
      "pl": 1331,
      "com": 1332,
      "his": 1333,
      "rom": 1334,
      "um": 1335,
      "all": 1336,
      "00": 1337,
      "oun": 1338,
      "ab": 1339,
      "unk": 1340,
      "mo": 1341,
      "ist": 1342,
      "su": 1343,
      "ne": 1344,
      "pro": 1345,
      "sh": 1346,
      "from": 1347,
      "pe": 1348,
      "In": 1349,
      "cl": 1350,
      "ate": 1351,
      "are": 1352,
      "art": 1353,
      "li": 1354,
      "tr": 1355,
      "ther": 1356,
      "igh": 1357,
      "os": 1358,
      "di": 1359,
      "em": 1360,
      "ex": 1361,
      "ber": 1362,
      "est": 1363,
      "ich": 1364,
      "were": 1365,
      "ld": 1366,
      "ard": 1367,
      "ill": 1368,
      "oc": 1369,
      "ak": 1370,
      "ast": 1371,
      "ies": 1372,
      "ant": 1373,
      "ong": 1374,
      "per": 1375,
      "qu": 1376,
      "gh": 1377,
      "ment": 1378,
      "ated": 1379,
      "ive": 1380,
      "out": 1381,
      "man": 1382,
      "ame": 1383,
      "ity": 1384,
      "fe": 1385,
      "ess": 1386,
      "our": 1387,
      "had": 1388,
      "od": 1389,
      "end": 1390,
      "ish": 1391,
      "ack": 1392,
      "ort": 1393,
      "one": 1394,
      "als": 1395,
      "ear": 1396,
      "av": 1397,
      "over": 1398,
      "ge": 1399,
      "tw": 1400,
      "af": 1401,
      "which": 1402,
      "ip": 1403,
      "ough": 1404,
      "ound": 1405,
      "but": 1406,
      "not": 1407,
      "vi": 1408,
      "act": 1409,
      "gr": 1410,
      "ass": 1411,
      "ord": 1412,
      "ally": 1413,
      "ave": 1414,
      "str": 1415,
      "ight": 1416,
      "ine": 1417,
      "her": 1418,
      "ary": 1419,
      "rit": 1420,
      "its": 1421,
      "du": 1422,
      "iv": 1423,
      "ud": 1424,
      "pr": 1425,
      "ep": 1426,
      "ian": 1427,
      "if": 1428,
      "St": 1429,
      "Ch": 1430,
      "ore": 1431,
      "20": 1432,
      "fir": 1433,
      "200": 1434,
      "up": 1435,
      "ew": 1436,
      "ould": 1437,
      "ia": 1438,
      "ous": 1439,
      "own": 1440,
      "der": 1441,
      "au": 1442,
      "bo": 1443,
      "bl": 1444,
      "aw": 1445,
      "ction": 1446,
      "wor": 1447,
      "comp": 1448,
      "ev": 1449,
      "ach": 1450,
      "age": 1451,
      "ke": 1452,
      "att": 1453,
      "first": 1454,
      "land": 1455,
      "port": 1456,
      "ign": 1457,
      "ition": 1458,
      "form": 1459,
      "their": 1460,
      "si": 1461,
      "ical": 1462,
      "low": 1463,
      "sc": 1464,
      "lo": 1465,
      "ial": 1466,
      "ser": 1467,
      "tim": 1468,
      "ater": 1469,
      "po": 1470,
      "ll": 1471,
      "also": 1472,
      "He": 1473,
      "who": 1474,
      "br": 1475,
      "part": 1476,
      "int": 1477,
      "ure": 1478,
      "18": 1479,
      "has": 1480,
      "other": 1481,
      "rec": 1482,
      "have": 1483,
      "play": 1484,
      "ome": 1485,
      "ans": 1486,
      "pt": 1487,
      "ust": 1488,
      "cont": 1489,
      "off": 1490,
      "ree": 1491,
      "ok": 1492,
      ".@": 1493,
      "@.@": 1494,
      "two": 1495,
      "ile": 1496,
      "ence": 1497,
      "pres": 1498,
      "uring": 1499,
      "been": 1500,
      "me": 1501,
      "ice": 1502,
      "ance": 1503,
      "we": 1504,
      "mer": 1505,
      ",@": 1506,
      "@,@": 1507,
      "dis": 1508,
      "201": 1509,
      "pos": 1510,
      "Th": 1511,
      "It": 1512,
      "this": 1513,
      "ory": 1514,
      "year": 1515,
      "after": 1516,
      "ren": 1517,
      "ph": 1518,
      "ult": 1519,
      "cre": 1520,
      "des": 1521,
      "ell": 1522,
      "ace": 1523,
      "ved": 1524,
      "fin": 1525,
      "ark": 1526,
      "ade": 1527,
      "they": 1528,
      "An": 1529,
      "able": 1530,
      "mon": 1531,
      "co": 1532,
      "sp": 1533,
      "incl": 1534,
      "ue": 1535,
      "ite": 1536,
      "ail": 1537,
      "Un": 1538,
      "ever": 1539,
      "work": 1540,
      "ang": 1541,
      "sion": 1542,
      "air": 1543,
      "ff": 1544,
      "time": 1545,
      "inter": 1546,
      "urn": 1547,
      "would": 1548,
      "ations": 1549,
      "ship": 1550,
      "pre": 1551,
      "og": 1552,
      "ced": 1553,
      "into": 1554,
      "cent": 1555,
      "him": 1556,
      "cr": 1557,
      "iz": 1558,
      "ick": 1559,
      "vel": 1560,
      "spe": 1561,
      "she": 1562,
      "mber": 1563,
      "ict": 1564,
      "ates": 1565,
      "no": 1566,
      "ie": 1567,
      "ased": 1568,
      "more": 1569,
      "ited": 1570,
      "ilm": 1571,
      "min": 1572,
      "old": 1573,
      "way": 1574,
      "ty": 1575,
      "ire": 1576,
      "most": 1577,
      "ces": 1578,
      "new": 1579,
      "amp": 1580,
      "son": 1581,
      "fore": 1582,
      "main": 1583,
      "Ar": 1584,
      "bec": 1585,
      "Al": 1586,
      "ry": 1587,
      "any": 1588,
      "ten": 1589,
      "ase": 1590,
      "ret": 1591,
      "used": 1592,
      "ason": 1593,
      "fl": 1594,
      "ann": 1595,
      "ood": 1596,
      "includ": 1597,
      "cond": 1598,
      "cted": 1599,
      "cess": 1600,
      "ings": 1601,
      "ran": 1602,
      "ind": 1603,
      "vis": 1604,
      "ors": 1605,
      "red": 1606,
      "when": 1607,
      "film": 1608,
      "day": 1609,
      "les": 1610,
      "ted": 1611,
      "ered": 1612,
      "rough": 1613,
      "ath": 1614,
      "ild": 1615,
      "comm": 1616,
      "ward": 1617,
      "ton": 1618,
      "col": 1619,
      "ake": 1620,
      "ican": 1621,
      "Mar": 1622,
      "Au": 1623,
      "ob": 1624,
      "bu": 1625,
      "though": 1626,
      "gan": 1627,
      "ts": 1628,
      "een": 1629,
      "ions": 1630,
      "reg": 1631,
      "sy": 1632,
      "ens": 1633,
      "Wh": 1634,
      "during": 1635,
      "ra": 1636,
      "than": 1637,
      "Re": 1638,
      "On": 1639,
      "De": 1640,
      "again": 1641,
      "game": 1642,
      "ose": 1643,
      "so": 1644,
      "under": 1645,
      "ble": 1646,
      "ubl": 1647,
      "gen": 1648,
      "nor": 1649,
      "char": 1650,
      "produ": 1651,
      "199": 1652,
      "only": 1653,
      "ck": 1654,
      "ollow": 1655,
      "them": 1656,
      "about": 1657,
      "row": 1658,
      "can": 1659,
      "ents": 1660,
      "while": 1661,
      "New": 1662,
      "ide": 1663,
      "ational": 1664,
      "some": 1665,
      "song": 1666,
      "En": 1667,
      "rele": 1668,
      "later": 1669,
      "oy": 1670,
      "led": 1671,
      "tween": 1672,
      "outh": 1673,
      "between": 1674,
      "ele": 1675,
      "sing": 1676,
      "three": 1677,
      "10": 1678,
      "ating": 1679,
      "Af": 1680,
      "where": 1681,
      "through": 1682,
      "num": 1683,
      "ron": 1684,
      "coun": 1685,
      "aid": 1686,
      "As": 1687,
      "season": 1688,
      "ics": 1689,
      "view": 1690,
      "ful": 1691,
      "lar": 1692,
      "cons": 1693,
      "Amer": 1694,
      "my": 1695,
      "tain": 1696,
      "ern": 1697,
      "writ": 1698,
      "stru": 1699,
      "sub": 1700,
      "ied": 1701,
      "then": 1702,
      "rel": 1703,
      "iver": 1704,
      "kn": 1705,
      "000": 1706,
      "ular": 1707,
      "dr": 1708,
      "Le": 1709,
      "ters": 1710,
      "Jo": 1711,
      "second": 1712,
      "high": 1713,
      "sel": 1714,
      "made": 1715,
      "med": 1716,
      "set": 1717,
      "Com": 1718,
      "ef": 1719,
      "ames": 1720,
      "bum": 1721,
      "record": 1722,
      "four": 1723,
      "follow": 1724,
      "do": 1725,
      "spec": 1726,
      "go": 1727,
      "such": 1728,
      "loc": 1729,
      "17": 1730,
      "sur": 1731,
      "ished": 1732,
      "cap": 1733,
      "arri": 1734,
      "eng": 1735,
      "ub": 1736,
      "before": 1737,
      "atch": 1738,
      "No": 1739,
      "back": 1740,
      "there": 1741,
      "cur": 1742,
      "team": 1743,
      "well": 1744,
      "mus": 1745,
      "15": 1746,
      "years": 1747,
      "iel": 1748,
      "appe": 1749,
      "cho": 1750,
      "ven": 1751,
      "ma": 1752,
      "add": 1753,
      "inn": 1754,
      "This": 1755,
      "ident": 1756,
      "sup": 1757,
      "ks": 1758,
      "pol": 1759,
      "album": 1760,
      "Con": 1761,
      "ific": 1762,
      "publ": 1763,
      "ros": 1764,
      "reat": 1765,
      "owever": 1766,
      "ily": 1767,
      "call": 1768,
      "..": 1769,
      "je": 1770,
      "fer": 1771,
      "tem": 1772,
      "Nor": 1773,
      "Sh": 1774,
      "gu": 1775,
      "ual": 1776,
      "ative": 1777,
      "many": 1778,
      "being": 1779,
      "point": 1780,
      "unt": 1781,
      "epis": 1782,
      "ale": 1783,
      "uary": 1784,
      "oup": 1785,
      "ond": 1786,
      "ince": 1787,
      "ode": 1788,
      "velop": 1789,
      "against": 1790,
      "At": 1791,
      "number": 1792,
      "ury": 1793,
      "use": 1794,
      "ped": 1795,
      "side": 1796,
      "lead": 1797,
      "ins": 1798,
      "show": 1799,
      "charac": 1800,
      "After": 1801,
      "ft": 1802,
      "sever": 1803,
      "Be": 1804,
      "mem": 1805,
      "16": 1806,
      "ause": 1807,
      "war": 1808,
      "par": 1809,
      "appear": 1810,
      "long": 1811,
      "found": 1812,
      "rece": 1813,
      "ious": 1814,
      "became": 1815,
      "12": 1816,
      "Brit": 1817,
      "ash": 1818,
      "including": 1819,
      "like": 1820,
      "United": 1821,
      "serv": 1822,
      "io": 1823,
      "both": 1824,
      "hn": 1825,
      "ese": 1826,
      "orn": 1827,
      "series": 1828,
      "Se": 1829,
      "198": 1830,
      "feat": 1831,
      "ise": 1832,
      "cy": 1833,
      "ost": 1834,
      "line": 1835,
      "cri": 1836,
      "mi": 1837,
      "igin": 1838,
      "194": 1839,
      "did": 1840,
      "ended": 1841,
      "She": 1842,
      "eral": 1843,
      "develop": 1844,
      "rop": 1845,
      "tri": 1846,
      "mill": 1847,
      "contin": 1848,
      "ments": 1849,
      "dire": 1850,
      "ley": 1851,
      "cer": 1852,
      "ities": 1853,
      "ures": 1854,
      "down": 1855,
      "ock": 1856,
      "Eng": 1857,
      "suc": 1858,
      "pop": 1859,
      "30": 1860,
      "diff": 1861,
      "head": 1862,
      "John": 1863,
      "dec": 1864,
      "road": 1865,
      "run": 1866,
      "pass": 1867,
      "az": 1868,
      "episode": 1869,
      "ird": 1870,
      "uch": 1871,
      "War": 1872,
      "said": 1873,
      "leg": 1874,
      "west": 1875,
      "ouse": 1876,
      "Wor": 1877,
      "could": 1878,
      "por": 1879,
      "ress": 1880,
      "erson": 1881,
      "several": 1882,
      "mis": 1883,
      "American": 1884,
      "known": 1885,
      "peri": 1886,
      "Ro": 1887,
      "origin": 1888,
      "vid": 1889,
      "vol": 1890,
      "lin": 1891,
      "ield": 1892,
      "197": 1893,
      "che": 1894,
      "comple": 1895,
      "arch": 1896,
      "rest": 1897,
      "ised": 1898,
      "196": 1899,
      "14": 1900,
      "II": 1901,
      "cord": 1902,
      "For": 1903,
      "ually": 1904,
      "sign": 1905,
      "self": 1906,
      "music": 1907,
      "Gr": 1908,
      "stem": 1909,
      "car": 1910,
      "remain": 1911,
      "return": 1912,
      "bed": 1913,
      "cept": 1914,
      "began": 1915,
      "oper": 1916,
      "design": 1917,
      "Ger": 1918,
      "try": 1919,
      "Br": 1920,
      "ste": 1921,
      "ting": 1922,
      "ople": 1923,
      "chool": 1924,
      "sm": 1925,
      "state": 1926,
      "early": 1927,
      "13": 1928,
      "aking": 1929,
      "hel": 1930,
      "ah": 1931,
      "cover": 1932,
      "released": 1933,
      "near": 1934,
      "dist": 1935,
      "ball": 1936,
      "ived": 1937,
      "descri": 1938,
      "Col": 1939,
      "until": 1940,
      "US": 1941,
      "called": 1942,
      "ject": 1943,
      "une": 1944,
      "success": 1945,
      "open": 1946,
      "present": 1947,
      "plac": 1948,
      "trans": 1949,
      "men": 1950,
      "Sc": 1951,
      "Tr": 1952,
      "fam": 1953,
      "arr": 1954,
      "hist": 1955,
      "ross": 1956,
      "olog": 1957,
      "May": 1958,
      "king": 1959,
      "hy": 1960,
      "offic": 1961,
      "get": 1962,
      "band": 1963,
      "ially": 1964,
      "crit": 1965,
      "overn": 1966,
      "gg": 1967,
      "val": 1968,
      "group": 1969,
      "gust": 1970,
      "less": 1971,
      "ists": 1972,
      "may": 1973,
      "along": 1974,
      "vent": 1975,
      "ves": 1976,
      "ms": 1977,
      "50": 1978,
      "nam": 1979,
      "bers": 1980,
      "million": 1981,
      "ower": 1982,
      "Cl": 1983,
      "mil": 1984,
      "British": 1985,
      "tow": 1986,
      "jor": 1987,
      "xt": 1988,
      "ving": 1989,
      "Sep": 1990,
      "sim": 1991,
      "bre": 1992,
      "cast": 1993,
      "these": 1994,
      "met": 1995,
      "come": 1996,
      "enn": 1997,
      "fect": 1998,
      "ather": 1999,
      "ric": 2000,
      "ized": 2001,
      "attack": 2002,
      "oci": 2003,
      "cut": 2004,
      "tember": 2005,
      "cle": 2006,
      "Wil": 2007,
      "national": 2008,
      "stral": 2009,
      "Sp": 2010,
      "now": 2011,
      "September": 2012,
      "August": 2013,
      "World": 2014,
      "ured": 2015,
      "States": 2016,
      "requ": 2017,
      "stor": 2018,
      "let": 2019,
      "took": 2020,
      "batt": 2021,
      "continu": 2022,
      "large": 2023,
      "same": 2024,
      "people": 2025,
      "Ju": 2026,
      "dep": 2027,
      "character": 2028,
      "oot": 2029,
      "und": 2030,
      "because": 2031,
      "vide": 2032,
      "Car": 2033,
      "ib": 2034,
      "light": 2035,
      "var": 2036,
      "grap": 2037,
      "position": 2038,
      "read": 2039,
      "11": 2040,
      "ism": 2041,
      "result": 2042,
      "around": 2043,
      "ired": 2044,
      "Oc": 2045,
      "start": 2046,
      "Is": 2047,
      "km": 2048,
      "aving": 2049,
      "class": 2050,
      "ctor": 2051,
      "wee": 2052,
      "ivers": 2053,
      "Bl": 2054,
      "Jan": 2055,
      "sk": 2056,
      "Ad": 2057,
      "cour": 2058,
      "aim": 2059,
      "Austral": 2060,
      "pon": 2061,
      "formed": 2062,
      "support": 2063,
      "oth": 2064,
      "vision": 2065,
      "mark": 2066,
      "la": 2067,
      "build": 2068,
      "ca": 2069,
      "following": 2070,
      "inc": 2071,
      "north": 2072,
      "life": 2073,
      "allow": 2074,
      "ants": 2075,
      "six": 2076,
      "system": 2077,
      "tal": 2078,
      "However": 2079,
      "ork": 2080,
      "ison": 2081,
      "track": 2082,
      "Octo": 2083,
      "Pl": 2084,
      "prom": 2085,
      "consid": 2086,
      "aft": 2087,
      "each": 2088,
      "received": 2089,
      "urch": 2090,
      "October": 2091,
      "rist": 2092,
      "will": 2093,
      "ime": 2094,
      "ained": 2095,
      "ium": 2096,
      "Pr": 2097,
      "West": 2098,
      "place": 2099,
      "ility": 2100,
      "very": 2101,
      "ys": 2102,
      "govern": 2103,
      "ax": 2104,
      "sol": 2105,
      "thern": 2106,
      "liam": 2107,
      "five": 2108,
      "ling": 2109,
      "just": 2110,
      "ru": 2111,
      "area": 2112,
      "stand": 2113,
      "right": 2114,
      "century": 2115,
      "ars": 2116,
      "wards": 2117,
      "appro": 2118,
      "They": 2119,
      "def": 2120,
      "partic": 2121,
      "match": 2122,
      "ately": 2123,
      "report": 2124,
      "city": 2125,
      "North": 2126,
      "By": 2127,
      "York": 2128,
      "rote": 2129,
      "ple": 2130,
      "public": 2131,
      "world": 2132,
      "June": 2133,
      "contro": 2134,
      "book": 2135,
      "giv": 2136,
      "tle": 2137,
      "top": 2138,
      "small": 2139,
      "major": 2140,
      "ked": 2141,
      "cording": 2142,
      "King": 2143,
      "jo": 2144,
      "ground": 2145,
      "July": 2146,
      "field": 2147,
      "ina": 2148,
      "Nove": 2149,
      "last": 2150,
      "Can": 2151,
      "November": 2152,
      "played": 2153,
      "organ": 2154,
      "what": 2155,
      "ger": 2156,
      "turn": 2157,
      "Man": 2158,
      "ored": 2159,
      "atter": 2160,
      "25": 2161,
      "tit": 2162,
      "east": 2163,
      "person": 2164,
      "since": 2165,
      "town": 2166,
      "single": 2167,
      "lish": 2168,
      "ional": 2169,
      "Apr": 2170,
      "sequ": 2171,
      "March": 2172,
      "April": 2173,
      "reach": 2174,
      "gun": 2175,
      "Fe": 2176,
      "app": 2177,
      "aged": 2178,
      "even": 2179,
      "Ac": 2180,
      "arm": 2181,
      "care": 2182,
      "ude": 2183,
      "ural": 2184,
      "name": 2185,
      "pri": 2186,
      "won": 2187,
      "ster": 2188,
      "Eu": 2189,
      "Ge": 2190,
      "differ": 2191,
      "power": 2192,
      "Mc": 2193,
      "Co": 2194,
      "dom": 2195,
      "hal": 2196,
      "vious": 2197,
      "0s": 2198,
      "ient": 2199,
      "Coun": 2200,
      "lit": 2201,
      "bro": 2202,
      "idge": 2203,
      "ague": 2204,
      "Indi": 2205,
      "final": 2206,
      "ined": 2207,
      "test": 2208,
      "left": 2209,
      "ref": 2210,
      "due": 2211,
      "South": 2212,
      "south": 2213,
      "event": 2214,
      "During": 2215,
      "version": 2216,
      "gre": 2217,
      "udi": 2218,
      "school": 2219,
      "ages": 2220,
      "list": 2221,
      "Dece": 2222,
      "ica": 2223,
      "ank": 2224,
      "December": 2225,
      "third": 2226,
      "German": 2227,
      "avy": 2228,
      "incre": 2229,
      "ilt": 2230,
      "water": 2231,
      "Me": 2232,
      "aff": 2233,
      "month": 2234,
      "Ph": 2235,
      "Ed": 2236,
      "moved": 2237,
      "ision": 2238,
      "Ste": 2239,
      "much": 2240,
      "ier": 2241,
      "child": 2242,
      "another": 2243,
      "expl": 2244,
      "ets": 2245,
      "named": 2246,
      "January": 2247,
      "included": 2248,
      "195": 2249,
      "based": 2250,
      "We": 2251,
      "issu": 2252,
      "wrote": 2253,
      "claim": 2254,
      "camp": 2255,
      "government": 2256,
      "193": 2257,
      "ships": 2258,
      "All": 2259,
      "kill": 2260,
      "ales": 2261,
      "ians": 2262,
      "When": 2263,
      "ons": 2264,
      "apan": 2265,
      "home": 2266,
      "ls": 2267,
      "chan": 2268,
      "short": 2269,
      "story": 2270,
      "Or": 2271,
      "Pe": 2272,
      "death": 2273,
      "ane": 2274,
      "bert": 2275,
      "ute": 2276,
      "order": 2277,
      "24": 2278,
      "ought": 2279,
      "ature": 2280,
      "Japan": 2281,
      "ently": 2282,
      "Gu": 2283,
      "roy": 2284,
      "ner": 2285,
      "ext": 2286,
      "ically": 2287,
      "ody": 2288,
      "make": 2289,
      "press": 2290,
      "using": 2291,
      "tempt": 2292,
      "family": 2293,
      "review": 2294,
      "Pro": 2295,
      "ital": 2296,
      "species": 2297,
      "pect": 2298,
      "ution": 2299,
      "oss": 2300,
      "flu": 2301,
      "hand": 2302,
      "house": 2303,
      "described": 2304,
      "ement": 2305,
      "previous": 2306,
      "ik": 2307,
      "fact": 2308,
      "rench": 2309,
      "...": 2310,
      "ney": 2311,
      "dam": 2312,
      "dest": 2313,
      "rown": 2314,
      "ards": 2315,
      "forman": 2316,
      "late": 2317,
      "Euro": 2318,
      "beli": 2319,
      "thing": 2320,
      "cas": 2321,
      "real": 2322,
      "urther": 2323,
      "built": 2324,
      "gener": 2325,
      "ilar": 2326,
      "former": 2327,
      "ified": 2328,
      "Bo": 2329,
      "best": 2330,
      "ene": 2331,
      "attempt": 2332,
      "oute": 2333,
      "placed": 2334,
      "tak": 2335,
      "games": 2336,
      "ler": 2337,
      "mp": 2338,
      "tract": 2339,
      "polit": 2340,
      "ness": 2341,
      "held": 2342,
      "command": 2343,
      "stud": 2344,
      "colle": 2345,
      "still": 2346,
      "put": 2347,
      "ety": 2348,
      "original": 2349,
      "stit": 2350,
      "His": 2351,
      "those": 2352,
      "ared": 2353,
      "addition": 2354,
      "constru": 2355,
      "Mon": 2356,
      "gram": 2357,
      "bruary": 2358,
      "February": 2359,
      "ford": 2360,
      "lim": 2361,
      "augh": 2362,
      "next": 2363,
      "vo": 2364,
      "effect": 2365,
      "anc": 2366,
      "Christ": 2367,
      "There": 2368,
      "fall": 2369,
      "performan": 2370,
      "fel": 2371,
      "mid": 2372,
      "fri": 2373,
      "gy": 2374,
      "den": 2375,
      "Par": 2376,
      "members": 2377,
      "rican": 2378,
      "sent": 2379,
      "21": 2380,
      "ctions": 2381,
      "ences": 2382,
      "ator": 2383,
      "National": 2384,
      "mar": 2385,
      "100": 2386,
      "Europe": 2387,
      "Gen": 2388,
      "iversity": 2389,
      "days": 2390,
      "see": 2391,
      "period": 2392,
      "adv": 2393,
      "within": 2394,
      "mit": 2395,
      "ats": 2396,
      "Li": 2397,
      "French": 2398,
      "ham": 2399,
      "22": 2400,
      "release": 2401,
      "role": 2402,
      "although": 2403,
      "move": 2404,
      "init": 2405,
      "thor": 2406,
      "video": 2407,
      "wind": 2408,
      "ush": 2409,
      "say": 2410,
      "half": 2411,
      "2010": 2412,
      "hip": 2413,
      "ines": 2414,
      "bur": 2415,
      "estab": 2416,
      "came": 2417,
      "ze": 2418,
      "cor": 2419,
      "William": 2420,
      "ropical": 2421,
      "continued": 2422,
      "Ser": 2423,
      "wom": 2424,
      "round": 2425,
      "23": 2426,
      "Her": 2427,
      "law": 2428,
      "ps": 2429,
      "win": 2430,
      "And": 2431,
      "aining": 2432,
      "craft": 2433,
      "na": 2434,
      "uc": 2435,
      "ains": 2436,
      "ribut": 2437,
      "ning": 2438,
      "ulation": 2439,
      "hum": 2440,
      "posed": 2441,
      "sou": 2442,
      "uss": 2443,
      "however": 2444,
      "ris": 2445,
      "ending": 2446,
      "ones": 2447,
      "27": 2448,
      "itary": 2449,
      "ched": 2450,
      "2008": 2451,
      "inning": 2452,
      "fac": 2453,
      "often": 2454,
      "2009": 2455,
      "you": 2456,
      "Geor": 2457,
      "few": 2458,
      "ral": 2459,
      "imes": 2460,
      "equ": 2461,
      "ister": 2462,
      "ampion": 2463,
      "ali": 2464,
      "take": 2465,
      "rad": 2466,
      "stri": 2467,
      "mag": 2468,
      "friend": 2469,
      "28": 2470,
      "local": 2471,
      "player": 2472,
      "similar": 2473,
      "2011": 2474,
      "sen": 2475,
      "Fran": 2476,
      "among": 2477,
      "Ear": 2478,
      "Air": 2479,
      "production": 2480,
      "beg": 2481,
      "Mich": 2482,
      "pite": 2483,
      "force": 2484,
      "Des": 2485,
      "went": 2486,
      "different": 2487,
      "wood": 2488,
      "ior": 2489,
      "ix": 2490,
      "Inter": 2491,
      "Bar": 2492,
      "chang": 2493,
      "possi": 2494,
      "mission": 2495,
      "ony": 2496,
      "England": 2497,
      "26": 2498,
      "ove": 2499,
      "Char": 2500,
      "atic": 2501,
      "storm": 2502,
      "40": 2503,
      "ery": 2504,
      "further": 2505,
      "strong": 2506,
      "One": 2507,
      "week": 2508,
      "night": 2509,
      "considered": 2510,
      "company": 2511,
      "level": 2512,
      "Mus": 2513,
      "sty": 2514,
      "served": 2515,
      "Dav": 2516,
      "ides": 2517,
      "2007": 2518,
      "post": 2519,
      "ided": 2520,
      "ices": 2521,
      "career": 2522,
      "aver": 2523,
      "Har": 2524,
      "fire": 2525,
      "provid": 2526,
      "having": 2527,
      "City": 2528,
      "ively": 2529,
      "East": 2530,
      "ged": 2531,
      "fort": 2532,
      "Park": 2533,
      "action": 2534,
      "exp": 2535,
      "commun": 2536,
      "trad": 2537,
      "English": 2538,
      "tele": 2539,
      "uck": 2540,
      "bas": 2541,
      "fron": 2542,
      "every": 2543,
      "enter": 2544,
      "club": 2545,
      "without": 2546,
      "history": 2547,
      "Although": 2548,
      "refer": 2549,
      "hold": 2550,
      "ives": 2551,
      "studi": 2552,
      "written": 2553,
      "wide": 2554,
      "2012": 2555,
      "become": 2556,
      "Scot": 2557,
      "lands": 2558,
      "stead": 2559,
      "ops": 2560,
      "board": 2561,
      "Fr": 2562,
      "respon": 2563,
      "Lond": 2564,
      "influ": 2565,
      "ink": 2566,
      "reet": 2567,
      "London": 2568,
      "graph": 2569,
      "sound": 2570,
      "Ang": 2571,
      "foot": 2572,
      "ggest": 2573,
      "With": 2574,
      "invol": 2575,
      "River": 2576,
      "suggest": 2577,
      "Batt": 2578,
      "ung": 2579,
      "29": 2580,
      "190": 2581,
      "So": 2582,
      "given": 2583,
      "announ": 2584,
      "ington": 2585,
      "que": 2586,
      "prof": 2587,
      "divid": 2588,
      "tro": 2589,
      "oung": 2590,
      "Ex": 2591,
      "bus": 2592,
      "iss": 2593,
      "mand": 2594,
      "want": 2595,
      "key": 2596,
      "reen": 2597,
      "Mo": 2598,
      "change": 2599,
      "building": 2600,
      "comb": 2601,
      "Canad": 2602,
      "High": 2603,
      "imp": 2604,
      "father": 2605,
      "gave": 2606,
      "successful": 2607,
      "Te": 2608,
      "anim": 2609,
      "common": 2610,
      "published": 2611,
      "Ne": 2612,
      "University": 2613,
      "To": 2614,
      "close": 2615,
      "import": 2616,
      "stated": 2617,
      "seven": 2618,
      "cop": 2619,
      "Sy": 2620,
      "rent": 2621,
      "sure": 2622,
      "never": 2623,
      "While": 2624,
      "good": 2625,
      "dri": 2626,
      "ailed": 2627,
      "returned": 2628,
      "ai": 2629,
      "bor": 2630,
      "produced": 2631,
      "total": 2632,
      "ug": 2633,
      "Pol": 2634,
      "beh": 2635,
      "iment": 2636,
      "ae": 2637,
      "country": 2638,
      "face": 2639,
      "sw": 2640,
      "omin": 2641,
      "prote": 2642,
      "Fl": 2643,
      "eved": 2644,
      "hour": 2645,
      "fr": 2646,
      "find": 2647,
      "away": 2648,
      "popular": 2649,
      "quad": 2650,
      "del": 2651,
      "sit": 2652,
      "tour": 2653,
      "reported": 2654,
      "aren": 2655,
      "Div": 2656,
      "omet": 2657,
      "ably": 2658,
      "2006": 2659,
      "lost": 2660,
      "program": 2661,
      "compos": 2662,
      "great": 2663,
      "aign": 2664,
      "particular": 2665,
      "ways": 2666,
      "draw": 2667,
      "vest": 2668,
      "making": 2669,
      "Cor": 2670,
      "include": 2671,
      "author": 2672,
      "According": 2673,
      "decl": 2674,
      "interest": 2675,
      "recorded": 2676,
      "chn": 2677,
      "how": 2678,
      "struct": 2679,
      "indu": 2680,
      "vers": 2681,
      "Dr": 2682,
      "forces": 2683,
      "arried": 2684,
      "need": 2685,
      "vict": 2686,
      "direct": 2687,
      "fle": 2688,
      "urrican": 2689,
      "plan": 2690,
      "ology": 2691,
      "body": 2692,
      "itions": 2693,
      "bar": 2694,
      "site": 2695,
      "aur": 2696,
      "should": 2697,
      "ama": 2698,
      "ploy": 2699,
      "service": 2700,
      "quar": 2701,
      "performance": 2702,
      "suff": 2703,
      "died": 2704,
      "moder": 2705,
      "Phil": 2706,
      "teen": 2707,
      "ument": 2708,
      "times": 2709,
      "These": 2710,
      "soci": 2711,
      "capt": 2712,
      "ox": 2713,
      "coming": 2714,
      "grad": 2715,
      "aircraft": 2716,
      "Roy": 2717,
      "himself": 2718,
      "2013": 2719,
      "pen": 2720,
      "military": 2721,
      "rock": 2722,
      "intro": 2723,
      "Australia": 2724,
      "depend": 2725,
      "flo": 2726,
      "battle": 2727,
      "ned": 2728,
      "sum": 2729,
      "Jack": 2730,
      "tell": 2731,
      "rew": 2732,
      "agre": 2733,
      "net": 2734,
      "room": 2735,
      "fan": 2736,
      "songs": 2737,
      "fun": 2738,
      "Pres": 2739,
      "member": 2740,
      "pur": 2741,
      "Am": 2742,
      "iness": 2743,
      "critic": 2744,
      "development": 2745,
      "ana": 2746,
      "elect": 2747,
      "General": 2748,
      "State": 2749,
      "Rep": 2750,
      "search": 2751,
      "xim": 2752,
      "aul": 2753,
      "front": 2754,
      "represent": 2755,
      "alth": 2756,
      "aster": 2757,
      "Min": 2758,
      "ened": 2759,
      "look": 2760,
      "189": 2761,
      "BC": 2762,
      "itive": 2763,
      "itch": 2764,
      "ael": 2765,
      "James": 2766,
      "histor": 2767,
      "developed": 2768,
      "akes": 2769,
      "acy": 2770,
      "ges": 2771,
      "istr": 2772,
      "medi": 2773,
      "control": 2774,
      "introdu": 2775,
      "destroy": 2776,
      "children": 2777,
      "gl": 2778,
      "Sw": 2779,
      "sl": 2780,
      "remained": 2781,
      "nal": 2782,
      "chart": 2783,
      "star": 2784,
      "Rom": 2785,
      "characters": 2786,
      "Army": 2787,
      "range": 2788,
      "fav": 2789,
      "ption": 2790,
      "vir": 2791,
      "title": 2792,
      "months": 2793,
      "60": 2794,
      "clear": 2795,
      "Sm": 2796,
      "ither": 2797,
      "mm": 2798,
      "campaign": 2799,
      "occur": 2800,
      "ues": 2801,
      "urricane": 2802,
      "League": 2803,
      "ey": 2804,
      "ising": 2805,
      "cult": 2806,
      "taken": 2807,
      "ense": 2808,
      "gether": 2809,
      "eight": 2810,
      "rap": 2811,
      "van": 2812,
      "ream": 2813,
      "compet": 2814,
      "felt": 2815,
      "ban": 2816,
      "cir": 2817,
      "tropical": 2818,
      "ability": 2819,
      "across": 2820,
      "signific": 2821,
      "writing": 2822,
      "seen": 2823,
      "project": 2824,
      "disc": 2825,
      "omb": 2826,
      "ering": 2827,
      "Su": 2828,
      "ots": 2829,
      "station": 2830,
      "bridge": 2831,
      "gest": 2832,
      "too": 2833,
      "Cap": 2834,
      "appeared": 2835,
      "announced": 2836,
      "America": 2837,
      "pra": 2838,
      "noted": 2839,
      "pec": 2840,
      "tar": 2841,
      "Division": 2842,
      "George": 2843,
      "alter": 2844,
      "reached": 2845,
      "Tw": 2846,
      "appoint": 2847,
      "experi": 2848,
      "cil": 2849,
      "created": 2850,
      "County": 2851,
      "activ": 2852,
      "areas": 2853,
      "Hen": 2854,
      "television": 2855,
      "works": 2856,
      "uses": 2857,
      "Japanese": 2858,
      "2005": 2859,
      "fight": 2860,
      "gin": 2861,
      "Road": 2862,
      "ille": 2863,
      "saw": 2864,
      "performed": 2865,
      "prim": 2866,
      "cost": 2867,
      "various": 2868,
      "political": 2869,
      "lect": 2870,
      "complete": 2871,
      "followed": 2872,
      "Street": 2873,
      "break": 2874,
      "full": 2875,
      "inv": 2876,
      "hor": 2877,
      "iting": 2878,
      "Per": 2879,
      "players": 2880,
      "race": 2881,
      "trave": 2882,
      "style": 2883,
      "ality": 2884,
      "2014": 2885,
      "covered": 2886,
      "arded": 2887,
      "ago": 2888,
      "Ma": 2889,
      "process": 2890,
      "black": 2891,
      "abor": 2892,
      "mph": 2893,
      "mix": 2894,
      "mot": 2895,
      "mb": 2896,
      "antic": 2897,
      "killed": 2898,
      "points": 2899,
      "help": 2900,
      "ief": 2901,
      "wall": 2902,
      "Mad": 2903,
      "ances": 2904,
      "ible": 2905,
      "lished": 2906,
      "throughout": 2907,
      "hit": 2908,
      "live": 2909,
      "sess": 2910,
      "lines": 2911,
      "together": 2912,
      "debut": 2913,
      "bet": 2914,
      "formation": 2915,
      "techn": 2916,
      "little": 2917,
      "sex": 2918,
      "har": 2919,
      "stat": 2920,
      "established": 2921,
      "significant": 2922,
      "fem": 2923,
      "non": 2924,
      "meet": 2925,
      "broad": 2926,
      "ization": 2927,
      "coast": 2928,
      "Thom": 2929,
      "thought": 2930,
      "construction": 2931,
      "icult": 2932,
      "bel": 2933,
      "oto": 2934,
      "miles": 2935,
      "pair": 2936,
      "earli": 2937,
      "does": 2938,
      "Reg": 2939,
      "impro": 2940,
      "enced": 2941,
      "David": 2942,
      "aval": 2943,
      "Michael": 2944,
      "tra": 2945,
      "entire": 2946,
      "Australian": 2947,
      "born": 2948,
      "rain": 2949,
      "stage": 2950,
      "pain": 2951,
      "acc": 2952,
      "far": 2953,
      "ission": 2954,
      "young": 2955,
      "voc": 2956,
      "got": 2957,
      "odes": 2958,
      "relation": 2959,
      "Part": 2960,
      "special": 2961,
      "Rich": 2962,
      "El": 2963,
      "route": 2964,
      "conom": 2965,
      "women": 2966,
      "decided": 2967,
      "ators": 2968,
      "conne": 2969,
      "Bill": 2970,
      "You": 2971,
      "caused": 2972,
      "started": 2973,
      "case": 2974,
      "ivil": 2975,
      "playing": 2976,
      "general": 2977,
      "features": 2978,
      "Med": 2979,
      "San": 2980,
      "grow": 2981,
      "white": 2982,
      "eventually": 2983,
      "scri": 2984,
      "sell": 2985,
      "ho": 2986,
      "once": 2987,
      "House": 2988,
      "ample": 2989,
      "manag": 2990,
      "aves": 2991,
      "tee": 2992,
      "isted": 2993,
      "crew": 2994,
      "ull": 2995,
      "sold": 2996,
      "host": 2997,
      "Fin": 2998,
      "feet": 2999,
      "Royal": 3000,
      "Qu": 3001,
      "opened": 3002,
      "added": 3003,
      "ald": 3004,
      "stant": 3005,
      "modern": 3006,
      "located": 3007,
      "termin": 3008,
      "idence": 3009,
      "188": 3010,
      "Hist": 3011,
      "pat": 3012,
      "quadron": 3013,
      "base": 3014,
      "ampionship": 3015,
      "ife": 3016,
      "reek": 3017,
      "Some": 3018,
      "instead": 3019,
      "ring": 3020,
      "Ital": 3021,
      "itar": 3022,
      "ensive": 3023,
      "vari": 3024,
      "inj": 3025,
      "important": 3026,
      "peak": 3027,
      "clos": 3028,
      "theast": 3029,
      "section": 3030,
      "Music": 3031,
      "cret": 3032,
      "utes": 3033,
      "Black": 3034,
      "word": 3035,
      "Don": 3036,
      "completed": 3037,
      "possible": 3038,
      "hon": 3039,
      "ocial": 3040,
      "Comp": 3041,
      "moun": 3042,
      "ends": 3043,
      "worked": 3044,
      "ov": 3045,
      "cross": 3046,
      "ination": 3047,
      "cause": 3048,
      "My": 3049,
      "current": 3050,
      "others": 3051,
      "population": 3052,
      "oney": 3053,
      "free": 3054,
      "2004": 3055,
      "mater": 3056,
      "audi": 3057,
      "ying": 3058,
      "pred": 3059,
      "Mal": 3060,
      "Bel": 3061,
      "fig": 3062,
      "lled": 3063,
      "leading": 3064,
      "uel": 3065,
      "Sch": 3066,
      "pie": 3067,
      "oted": 3068,
      "rather": 3069,
      "typ": 3070,
      "Po": 3071,
      "don": 3072,
      "quest": 3073,
      "Lu": 3074,
      "loss": 3075,
      "guns": 3076,
      "behind": 3077,
      "church": 3078,
      "tre": 3079,
      "Ber": 3080,
      "Robert": 3081,
      "upon": 3082,
      "ceed": 3083,
      "pract": 3084,
      "forced": 3085,
      "Hol": 3086,
      "31": 3087,
      "dle": 3088,
      "comment": 3089,
      "lack": 3090,
      "era": 3091,
      "mother": 3092,
      "invest": 3093,
      "France": 3094,
      "ask": 3095,
      "fif": 3096,
      "2015": 3097,
      "inch": 3098,
      "heavy": 3099,
      "Cent": 3100,
      "lie": 3101,
      "vill": 3102,
      "ecut": 3103,
      "party": 3104,
      "ays": 3105,
      "respect": 3106,
      "Act": 3107,
      "School": 3108,
      "subsequ": 3109,
      "novel": 3110,
      "ming": 3111,
      "proble": 3112,
      "know": 3113,
      "Russ": 3114,
      "difficult": 3115,
      "accept": 3116,
      "reve": 3117,
      "Wash": 3118,
      "Ab": 3119,
      "Angel": 3120,
      "working": 3121,
      "separ": 3122,
      "human": 3123,
      "Vi": 3124,
      "associ": 3125,
      "joined": 3126,
      "weeks": 3127,
      "term": 3128,
      "Henry": 3129,
      "yn": 3130,
      "scene": 3131,
      "70": 3132,
      "ata": 3133,
      "originally": 3134,
      "avail": 3135,
      "hard": 3136,
      "coll": 3137,
      "ogn": 3138,
      "scored": 3139,
      "almost": 3140,
      "ories": 3141,
      "pression": 3142,
      "asing": 3143,
      "NA": 3144,
      "damage": 3145,
      "allowed": 3146,
      "Ham": 3147,
      "ties": 3148,
      "Battle": 3149,
      "angu": 3150,
      "inst": 3151,
      "mass": 3152,
      "Ale": 3153,
      "fourth": 3154,
      "spir": 3155,
      "Em": 3156,
      "Best": 3157,
      "approach": 3158,
      "ready": 3159,
      "igned": 3160,
      "provided": 3161,
      "engine": 3162,
      "goal": 3163,
      "Cr": 3164,
      "ival": 3165,
      "ope": 3166,
      "ials": 3167,
      "35": 3168,
      "claimed": 3169,
      "ament": 3170,
      "80": 3171,
      "ino": 3172,
      "drop": 3173,
      "Fir": 3174,
      "wanted": 3175,
      "lower": 3176,
      "regular": 3177,
      "Vir": 3178,
      "employ": 3179,
      "Paul": 3180,
      "cup": 3181,
      "Port": 3182,
      "amb": 3183,
      "brought": 3184,
      "Red": 3185,
      "tradition": 3186,
      "nat": 3187,
      "individ": 3188,
      "Que": 3189,
      "featured": 3190,
      "500": 3191,
      "President": 3192,
      "Cour": 3193,
      "least": 3194,
      "cell": 3195,
      "wife": 3196,
      "laun": 3197,
      "gar": 3198,
      "econom": 3199,
      "hest": 3200,
      "average": 3201,
      "Mil": 3202,
      "passed": 3203,
      "soon": 3204,
      "aut": 3205,
      "business": 3206,
      "towards": 3207,
      "super": 3208,
      "TV": 3209,
      "region": 3210,
      "runs": 3211,
      "cred": 3212,
      "Washington": 3213,
      "recogn": 3214,
      "aps": 3215,
      "bal": 3216,
      "tempor": 3217,
      "critics": 3218,
      "western": 3219,
      "Play": 3220,
      "azine": 3221,
      "quick": 3222,
      "either": 3223,
      "office": 3224,
      "estim": 3225,
      "cts": 3226,
      "sour": 3227,
      "186": 3228,
      "contract": 3229,
      "profess": 3230,
      "redu": 3231,
      "leng": 3232,
      "plann": 3233,
      "Mor": 3234,
      "defe": 3235,
      "court": 3236,
      "forms": 3237,
      "example": 3238,
      "emy": 3239,
      "counter": 3240,
      "merc": 3241,
      "rail": 3242,
      "rid": 3243,
      "nomin": 3244,
      "Other": 3245,
      "Mac": 3246,
      "ula": 3247,
      "troops": 3248,
      "foc": 3249,
      "icated": 3250,
      "compan": 3251,
      "finished": 3252,
      "Res": 3253,
      "cing": 3254,
      "nia": 3255,
      "hom": 3256,
      "army": 3257,
      "dou": 3258,
      "ids": 3259,
      "Je": 3260,
      "Despite": 3261,
      "concl": 3262,
      "2003": 3263,
      "Follow": 3264,
      "rul": 3265,
      "feel": 3266,
      "ades": 3267,
      "generally": 3268,
      "shot": 3269,
      "mult": 3270,
      "asy": 3271,
      "Dan": 3272,
      "proper": 3273,
      "Game": 3274,
      "condu": 3275,
      "circ": 3276,
      "bill": 3277,
      "Gl": 3278,
      "ply": 3279,
      "whe": 3280,
      "det": 3281,
      "Colle": 3282,
      "aper": 3283,
      "events": 3284,
      "ico": 3285,
      "length": 3286,
      "believed": 3287,
      "compl": 3288,
      "fed": 3289,
      "mun": 3290,
      "Cup": 3291,
      "cert": 3292,
      "bes": 3293,
      "fre": 3294,
      "particip": 3295,
      "First": 3296,
      "Following": 3297,
      "osp": 3298,
      "keep": 3299,
      "ius": 3300,
      "parts": 3301,
      "sea": 3302,
      "aled": 3303,
      "mal": 3304,
      "Hill": 3305,
      "Mary": 3306,
      "fund": 3307,
      "anti": 3308,
      "Star": 3309,
      "scen": 3310,
      "nine": 3311,
      "victory": 3312,
      "replaced": 3313,
      "ention": 3314,
      "bound": 3315,
      "nel": 3316,
      "designed": 3317,
      "available": 3318,
      "island": 3319,
      "iction": 3320,
      "official": 3321,
      "Dep": 3322,
      "conc": 3323,
      "hours": 3324,
      "European": 3325,
      "involved": 3326,
      "sele": 3327,
      "ping": 3328,
      "president": 3329,
      "Two": 3330,
      "opening": 3331,
      "evol": 3332,
      "prison": 3333,
      "Lou": 3334,
      "itor": 3335,
      "ological": 3336,
      "stop": 3337,
      "asked": 3338,
      "ential": 3339,
      "certain": 3340,
      "turned": 3341,
      "tic": 3342,
      "comes": 3343,
      "execut": 3344,
      "exist": 3345,
      "tor": 3346,
      "director": 3347,
      "hous": 3348,
      "hab": 3349,
      "erous": 3350,
      "saying": 3351,
      "bri": 3352,
      "alk": 3353,
      "Sun": 3354,
      "threat": 3355,
      "ience": 3356,
      "ount": 3357,
      "appearance": 3358,
      "ports": 3359,
      "commit": 3360,
      "2000": 3361,
      "45": 3362,
      "75": 3363,
      "istic": 3364,
      "love": 3365,
      "ighest": 3366,
      "cycl": 3367,
      "stone": 3368,
      "park": 3369,
      "minutes": 3370,
      "largest": 3371,
      "writer": 3372,
      "Roman": 3373,
      "Mer": 3374,
      "watch": 3375,
      "highway": 3376,
      "southern": 3377,
      "Route": 3378,
      "tel": 3379,
      "Scott": 3380,
      "taking": 3381,
      "survi": 3382,
      "going": 3383,
      "ublic": 3384,
      "highest": 3385,
      "earlier": 3386,
      "From": 3387,
      "2001": 3388,
      "Mid": 3389,
      "initially": 3390,
      "ishing": 3391,
      "percent": 3392,
      "particularly": 3393,
      "training": 3394,
      "sil": 3395,
      "Atl": 3396,
      "vice": 3397,
      "mir": 3398,
      "lear": 3399,
      "nd": 3400,
      "cal": 3401,
      "ership": 3402,
      "Sing": 3403,
      "White": 3404,
      "lying": 3405,
      "educ": 3406,
      "must": 3407,
      "Church": 3408,
      "ordered": 3409,
      "assist": 3410,
      "issue": 3411,
      "Charles": 3412,
      "Kingdom": 3413,
      "Navy": 3414,
      "ize": 3415,
      "Mart": 3416,
      "Val": 3417,
      "ha": 3418,
      "graphy": 3419,
      "signed": 3420,
      "bit": 3421,
      "Do": 3422,
      "hib": 3423,
      "pot": 3424,
      "weak": 3425,
      "ateg": 3426,
      "box": 3427,
      "Thomas": 3428,
      "pond": 3429,
      "social": 3430,
      "tries": 3431,
      "central": 3432,
      "thus": 3433,
      "Off": 3434,
      "uture": 3435,
      "studio": 3436,
      "maintain": 3437,
      "praised": 3438,
      "pected": 3439,
      "Hall": 3440,
      "International": 3441,
      "speed": 3442,
      "alifor": 3443,
      "Mag": 3444,
      "ency": 3445,
      "Smith": 3446,
      "langu": 3447,
      "prec": 3448,
      "date": 3449,
      "ville": 3450,
      "reason": 3451,
      "Virgin": 3452,
      "ception": 3453,
      "pers": 3454,
      "increased": 3455,
      "gress": 3456,
      "hurricane": 3457,
      "bow": 3458,
      "northern": 3459,
      "deal": 3460,
      "Du": 3461,
      "ification": 3462,
      "units": 3463,
      "research": 3464,
      "But": 3465,
      "2002": 3466,
      "relig": 3467,
      "past": 3468,
      "90": 3469,
      "depart": 3470,
      "type": 3471,
      "stry": 3472,
      "meas": 3473,
      "Canada": 3474,
      "ape": 3475,
      "Bur": 3476,
      "Califor": 3477,
      "via": 3478,
      "commission": 3479,
      "Dis": 3480,
      "deli": 3481,
      "Bay": 3482,
      "ta": 3483,
      "pay": 3484,
      "Cam": 3485,
      "rac": 3486,
      "immedi": 3487,
      "mean": 3488,
      "daugh": 3489,
      "ayed": 3490,
      "AA": 3491,
      "Pri": 3492,
      "rian": 3493,
      "relationship": 3494,
      "agon": 3495,
      "fantry": 3496,
      "acqu": 3497,
      "ilities": 3498,
      "za": 3499,
      "Peter": 3500,
      "Richard": 3501,
      "pressed": 3502,
      "omer": 3503,
      "Pal": 3504,
      "independ": 3505,
      "usually": 3506,
      "imin": 3507,
      "bomb": 3508,
      "told": 3509,
      "better": 3510,
      "California": 3511,
      "Indian": 3512,
      "Alex": 3513,
      "Bro": 3514,
      "icket": 3515,
      "states": 3516,
      "enough": 3517,
      "winds": 3518,
      "Union": 3519,
      "Sen": 3520,
      "Mill": 3521,
      "hol": 3522,
      "Sam": 3523,
      "uk": 3524,
      "positive": 3525,
      "sal": 3526,
      "commerc": 3527,
      "ken": 3528,
      "Ho": 3529,
      "jour": 3530,
      "Court": 3531,
      "Island": 3532,
      "concern": 3533,
      "sed": 3534,
      "Brown": 3535,
      "sat": 3536,
      "spent": 3537,
      "aring": 3538,
      "according": 3539,
      "Mi": 3540,
      "ference": 3541,
      "Ben": 3542,
      "phys": 3543,
      "rup": 3544,
      "appointed": 3545,
      "above": 3546,
      "screen": 3547,
      "God": 3548,
      "films": 3549,
      "arily": 3550,
      "outside": 3551,
      "Great": 3552,
      "ume": 3553,
      "accoun": 3554,
      "football": 3555,
      "tion": 3556,
      "Award": 3557,
      "icle": 3558,
      "Cong": 3559,
      "previously": 3560,
      "ara": 3561,
      "recording": 3562,
      "script": 3563,
      "quare": 3564,
      "Sal": 3565,
      "ston": 3566,
      "responsi": 3567,
      "standing": 3568,
      "contribut": 3569,
      "Associ": 3570,
      "active": 3571,
      "Tom": 3572,
      "failed": 3573,
      "defin": 3574,
      "bird": 3575,
      "access": 3576,
      "usion": 3577,
      "Company": 3578,
      "required": 3579,
      "elements": 3580,
      "load": 3581,
      "Rock": 3582,
      "lay": 3583,
      "occup": 3584,
      "reng": 3585,
      "mur": 3586,
      "ener": 3587,
      "treat": 3588,
      "overnor": 3589,
      "ems": 3590,
      "vin": 3591,
      "187": 3592,
      "Germany": 3593,
      "reviews": 3594,
      "India": 3595,
      "directed": 3596,
      "Vict": 3597,
      "viol": 3598,
      "interview": 3599,
      "NY": 3600,
      "ometimes": 3601,
      "alion": 3602,
      "itself": 3603,
      "sey": 3604,
      "give": 3605,
      "groups": 3606,
      "Ap": 3607,
      "Christian": 3608,
      "reme": 3609,
      "Mark": 3610,
      "gir": 3611,
      "La": 3612,
      "despite": 3613,
      "score": 3614,
      "vert": 3615,
      "respond": 3616,
      "atin": 3617,
      "Sou": 3618,
      "inner": 3619,
      "aters": 3620,
      "Times": 3621,
      "cru": 3622,
      "III": 3623,
      "thod": 3624,
      "Str": 3625,
      "prob": 3626,
      "perform": 3627,
      "UK": 3628,
      "ique": 3629,
      "beginning": 3630,
      "introduced": 3631,
      "Ter": 3632,
      "Sk": 3633,
      "ministr": 3634,
      "bour": 3635,
      "soldi": 3636,
      "College": 3637,
      "space": 3638,
      "happ": 3639,
      "onto": 3640,
      "frequ": 3641,
      "ida": 3642,
      "streng": 3643,
      "whose": 3644,
      "flight": 3645,
      "oring": 3646,
      "priv": 3647,
      "tur": 3648,
      "transfer": 3649,
      "Cast": 3650,
      "league": 3651,
      "Western": 3652,
      "ication": 3653,
      "sus": 3654,
      "ept": 3655,
      "prevent": 3656,
      "idea": 3657,
      "Mex": 3658,
      "brother": 3659,
      "Sim": 3660,
      "changes": 3661,
      "edy": 3662,
      "Sovi": 3663,
      "Jer": 3664,
      "election": 3665,
      "additional": 3666,
      "defeated": 3667,
      "gold": 3668,
      "Gold": 3669,
      "future": 3670,
      "ga": 3671,
      "igan": 3672,
      "conf": 3673,
      "ault": 3674,
      "whom": 3675,
      "Ke": 3676,
      "appl": 3677,
      "pil": 3678,
      "poor": 3679,
      "international": 3680,
      "ases": 3681,
      "Grand": 3682,
      "jud": 3683,
      "Awards": 3684,
      "ns": 3685,
      "Span": 3686,
      "anal": 3687,
      "native": 3688,
      "exten": 3689,
      "evidence": 3690,
      "structure": 3691,
      "changed": 3692,
      "quickly": 3693,
      "argu": 3694,
      "tom": 3695,
      "Tri": 3696,
      "center": 3697,
      "already": 3698,
      "specific": 3699,
      "market": 3700,
      "That": 3701,
      "Force": 3702,
      "photo": 3703,
      "radio": 3704,
      "situ": 3705,
      "material": 3706,
      "doc": 3707,
      "Day": 3708,
      "aint": 3709,
      "sem": 3710,
      "river": 3711,
      "Most": 3712,
      "coach": 3713,
      "agreed": 3714,
      "arrived": 3715,
      "atory": 3716,
      "study": 3717,
      "civil": 3718,
      "Bu": 3719,
      "Britain": 3720,
      "Met": 3721,
      "likely": 3722,
      "ctive": 3723,
      "staff": 3724,
      "dies": 3725,
      "decision": 3726,
      "slow": 3727,
      "umb": 3728,
      "emp": 3729,
      "lyr": 3730,
      "useum": 3731,
      "subject": 3732,
      "female": 3733,
      "lies": 3734,
      "money": 3735,
      "sometimes": 3736,
      "might": 3737,
      "limited": 3738,
      "surface": 3739,
      "response": 3740,
      "anch": 3741,
      "fleet": 3742,
      "espec": 3743,
      "Film": 3744,
      "names": 3745,
      "hop": 3746,
      "icted": 3747,
      "spr": 3748,
      "course": 3749,
      "magazine": 3750,
      "especially": 3751,
      "food": 3752,
      "apt": 3753,
      "ben": 3754,
      "actions": 3755,
      "nation": 3756,
      "ded": 3757,
      "Later": 3758,
      "33": 3759,
      "pet": 3760,
      "estimated": 3761,
      "liament": 3762,
      "broadcast": 3763,
      "carried": 3764,
      "Victor": 3765,
      "Championship": 3766,
      "flow": 3767,
      "Chin": 3768,
      "flood": 3769,
      "consider": 3770,
      "Pac": 3771,
      "shows": 3772,
      "Frank": 3773,
      "community": 3774,
      "sch": 3775,
      "guitar": 3776,
      "paren": 3777,
      "listed": 3778,
      "ples": 3779,
      "uded": 3780,
      "prepar": 3781,
      "musical": 3782,
      "scenes": 3783,
      "size": 3784,
      "rate": 3785,
      "remaining": 3786,
      "related": 3787,
      "1999": 3788,
      "eastern": 3789,
      "arrison": 3790,
      "minor": 3791,
      "bi": 3792,
      "berg": 3793,
      "plant": 3794,
      "text": 3795,
      "venue": 3796,
      "personal": 3797,
      "Over": 3798,
      "becoming": 3799,
      "Virginia": 3800,
      "natural": 3801,
      "Early": 3802,
      "Los": 3803,
      "cul": 3804,
      "larger": 3805,
      "division": 3806,
      "isl": 3807,
      "latter": 3808,
      "entered": 3809,
      "bot": 3810,
      "bell": 3811,
      "media": 3812,
      "object": 3813,
      "emer": 3814,
      "rights": 3815,
      "police": 3816,
      "summer": 3817,
      "ises": 3818,
      "Pat": 3819,
      "married": 3820,
      "suggested": 3821,
      "suit": 3822,
      "pressure": 3823,
      "approxim": 3824,
      "yard": 3825,
      "teams": 3826,
      "brief": 3827,
      "arrang": 3828,
      "ror": 3829,
      "liter": 3830,
      "itz": 3831,
      "Year": 3832,
      "daughter": 3833,
      "investig": 3834,
      "Just": 3835,
      "establish": 3836,
      "36": 3837,
      "surround": 3838,
      "Jackson": 3839,
      "students": 3840,
      "exper": 3841,
      "Second": 3842,
      "tax": 3843,
      "Di": 3844,
      "ena": 3845,
      "temporary": 3846,
      "effects": 3847,
      "kil": 3848,
      "Tex": 3849,
      "Chic": 3850,
      "prior": 3851,
      "episodes": 3852,
      "37": 3853,
      "favor": 3854,
      "woman": 3855,
      "If": 3856,
      "tons": 3857,
      "els": 3858,
      "alled": 3859,
      "Flor": 3860,
      "Louis": 3861,
      "worth": 3862,
      "winning": 3863,
      "fit": 3864,
      "Oly": 3865,
      "Tour": 3866,
      "iter": 3867,
      "clim": 3868,
      "Fle": 3869,
      "leaving": 3870,
      "destroyed": 3871,
      "irth": 3872,
      "mor": 3873,
      "sett": 3874,
      "mode": 3875,
      "Olymp": 3876,
      "avo": 3877,
      "selves": 3878,
      "tracks": 3879,
      "Green": 3880,
      "viron": 3881,
      "Lord": 3882,
      "join": 3883,
      "bs": 3884,
      "equip": 3885,
      "fail": 3886,
      "Spanish": 3887,
      "Club": 3888,
      "Ty": 3889,
      "pan": 3890,
      "sons": 3891,
      "provide": 3892,
      "reli": 3893,
      "relative": 3894,
      "igade": 3895,
      "territ": 3896,
      "idents": 3897,
      "polic": 3898,
      "mocr": 3899,
      "burg": 3900,
      "Aust": 3901,
      "aj": 3902,
      "vie": 3903,
      "proposed": 3904,
      "Pre": 3905,
      "influence": 3906,
      "intended": 3907,
      "Party": 3908,
      "overall": 3909,
      "aries": 3910,
      "Soviet": 3911,
      "verse": 3912,
      "32": 3913,
      "spo": 3914,
      "qual": 3915,
      "moving": 3916,
      "ening": 3917,
      "big": 3918,
      "running": 3919,
      "occas": 3920,
      "38": 3921,
      "supported": 3922,
      "artment": 3923,
      "distr": 3924,
      "Association": 3925,
      "escap": 3926,
      "fully": 3927,
      "ander": 3928,
      "quarter": 3929,
      "ek": 3930,
      "thers": 3931,
      "purch": 3932,
      "expected": 3933,
      "burn": 3934,
      "Rob": 3935,
      "Chicago": 3936,
      "Cal": 3937,
      "fell": 3938,
      "lot": 3939,
      "nearly": 3940,
      "49": 3941,
      "Many": 3942,
      "abs": 3943,
      "forward": 3944,
      "helped": 3945,
      "Love": 3946,
      "mach": 3947,
      "movement": 3948,
      "Record": 3949,
      "awarded": 3950,
      "1998": 3951,
      "Chinese": 3952,
      "mixed": 3953,
      "commercial": 3954,
      "ires": 3955,
      "Council": 3956,
      "bring": 3957,
      "Che": 3958,
      "rey": 3959,
      "secut": 3960,
      "marked": 3961,
      "issued": 3962,
      "closed": 3963,
      "Song": 3964,
      "experience": 3965,
      "create": 3966,
      "Super": 3967,
      "consist": 3968,
      "nu": 3969,
      "Oper": 3970,
      "stars": 3971,
      "Edward": 3972,
      "185": 3973,
      "Im": 3974,
      "stra": 3975,
      "dark": 3976,
      "planned": 3977,
      "bey": 3978,
      "syn": 3979,
      "Enter": 3980,
      "breed": 3981,
      "done": 3982,
      "legal": 3983,
      "Del": 3984,
      "dead": 3985,
      "longer": 3986,
      "iple": 3987,
      "fans": 3988,
      "ny": 3989,
      "joy": 3990,
      "language": 3991,
      "pow": 3992,
      "operation": 3993,
      "higher": 3994,
      "possib": 3995,
      "hood": 3996,
      "attract": 3997,
      "captured": 3998,
      "compared": 3999,
      "increasing": 4000,
      "300": 4001,
      "phen": 4002,
      "leader": 4003,
      "wing": 4004,
      "fill": 4005,
      "ili": 4006,
      "ari": 4007,
      "Johnson": 4008,
      "deep": 4009,
      "cele": 4010,
      "Ze": 4011,
      "approximately": 4012,
      "Lo": 4013,
      "living": 4014,
      "fish": 4015,
      "feature": 4016,
      "fifth": 4017,
      "bon": 4018,
      "temper": 4019,
      "themselves": 4020,
      "ato": 4021,
      "touch": 4022,
      "producer": 4023,
      "History": 4024,
      "dy": 4025,
      "print": 4026,
      "Kore": 4027,
      "chall": 4028,
      "mostly": 4029,
      "ech": 4030,
      "bad": 4031,
      "dig": 4032,
      "Pacific": 4033,
      "1st": 4034,
      "intens": 4035,
      "Back": 4036,
      "icles": 4037,
      "Billboard": 4038,
      "lor": 4039,
      "anced": 4040,
      "rica": 4041,
      "Go": 4042,
      "operations": 4043,
      "remains": 4044,
      "olk": 4045,
      "rd": 4046,
      "defeat": 4047,
      "appears": 4048,
      "mitted": 4049,
      "weap": 4050,
      "buildings": 4051,
      "whether": 4052,
      "34": 4053,
      "orial": 4054,
      "Ir": 4055,
      "bury": 4056,
      "aught": 4057,
      "Art": 4058,
      "los": 4059,
      "extended": 4060,
      "probably": 4061,
      "soldiers": 4062,
      "copies": 4063,
      "spired": 4064,
      "lan": 4065,
      "Hu": 4066,
      "plot": 4067,
      "ba": 4068,
      "Under": 4069,
      "Cro": 4070,
      "Squadron": 4071,
      "weight": 4072,
      "Queen": 4073,
      "voice": 4074,
      "heav": 4075,
      "Since": 4076,
      "pose": 4077,
      "1997": 4078,
      "lyrics": 4079,
      "Atlantic": 4080,
      "portr": 4081,
      "complex": 4082,
      "stream": 4083,
      "shoot": 4084,
      "jected": 4085,
      "battles": 4086,
      "transport": 4087,
      "deb": 4088,
      "really": 4089,
      "countries": 4090,
      "mas": 4091,
      "ender": 4092,
      "affe": 4093,
      "suffered": 4094,
      "Bal": 4095,
      "Mur": 4096,
      "ospital": 4097,
      "cm": 4098,
      "Test": 4099,
      "roll": 4100,
      "goals": 4101,
      "Lake": 4102,
      "Arch": 4103,
      "includes": 4104,
      "demand": 4105,
      "Florida": 4106,
      "carri": 4107,
      "andon": 4108,
      "igr": 4109,
      "issues": 4110,
      "Sever": 4111,
      "immediately": 4112,
      "health": 4113,
      "Law": 4114,
      "cting": 4115,
      "MS": 4116,
      "Both": 4117,
      "Tur": 4118,
      "Leg": 4119,
      "capital": 4120,
      "manager": 4121,
      "private": 4122,
      "request": 4123,
      "visit": 4124,
      "boy": 4125,
      "officers": 4126,
      "Sea": 4127,
      "Big": 4128,
      "48": 4129,
      "Jim": 4130,
      "Jew": 4131,
      "leave": 4132,
      "target": 4133,
      "cis": 4134,
      "ores": 4135,
      "location": 4136,
      "aging": 4137,
      "ams": 4138,
      "removed": 4139,
      "expand": 4140,
      "Station": 4141,
      "ultim": 4142,
      "Texas": 4143,
      "flict": 4144,
      "flag": 4145,
      "increase": 4146,
      "Tor": 4147,
      "FA": 4148,
      "yards": 4149,
      "Fort": 4150,
      "rich": 4151,
      "birth": 4152,
      "subsequently": 4153,
      "cit": 4154,
      "Bet": 4155,
      "status": 4156,
      "plans": 4157,
      "wa": 4158,
      "colon": 4159,
      "always": 4160,
      "offered": 4161,
      "fast": 4162,
      "portion": 4163,
      "amed": 4164,
      "confir": 4165,
      "services": 4166,
      "Ot": 4167,
      "mel": 4168,
      "upper": 4169,
      "China": 4170,
      "Old": 4171,
      "Mr": 4172,
      "ert": 4173,
      "Town": 4174,
      "Studi": 4175,
      "Another": 4176,
      "nes": 4177,
      "problems": 4178,
      "evolution": 4179,
      "attacks": 4180,
      "ging": 4181,
      "block": 4182,
      "gas": 4183,
      "instr": 4184,
      "twent": 4185,
      "Rad": 4186,
      "tainment": 4187,
      "How": 4188,
      "vey": 4189,
      "phy": 4190,
      "reser": 4191,
      "terms": 4192,
      "shire": 4193,
      "Earth": 4194,
      "demon": 4195,
      "oud": 4196,
      "forts": 4197,
      "something": 4198,
      "professional": 4199,
      "habit": 4200,
      "39": 4201,
      "aily": 4202,
      "carry": 4203,
      "administr": 4204,
      "village": 4205,
      "takes": 4206,
      "castle": 4207,
      "stitut": 4208,
      "majority": 4209,
      "ously": 4210,
      "orning": 4211,
      "discover": 4212,
      "discovered": 4213,
      "rat": 4214,
      "Rail": 4215,
      "vironment": 4216,
      "makes": 4217,
      "contr": 4218,
      "Canadian": 4219,
      "Boy": 4220,
      "ranked": 4221,
      "iser": 4222,
      "Emp": 4223,
      "composed": 4224,
      "job": 4225,
      "minute": 4226,
      "assigned": 4227,
      "Mat": 4228,
      "neg": 4229,
      "Africa": 4230,
      "elected": 4231,
      "Center": 4232,
      "concept": 4233,
      "anks": 4234,
      "damaged": 4235,
      "47": 4236,
      "Bow": 4237,
      "uries": 4238,
      "adop": 4239,
      "beat": 4240,
      "meeting": 4241,
      "otion": 4242,
      "initial": 4243,
      "cean": 4244,
      "aker": 4245,
      "mouth": 4246,
      "Wood": 4247,
      "Its": 4248,
      "adium": 4249,
      "cu": 4250,
      "iles": 4251,
      "revealed": 4252,
      "chester": 4253,
      "incor": 4254,
      "individual": 4255,
      "Bra": 4256,
      "Highway": 4257,
      "mat": 4258,
      "inspired": 4259,
      "onna": 4260,
      "raised": 4261,
      "Russian": 4262,
      "giving": 4263,
      "ulated": 4264,
      "lived": 4265,
      "itect": 4266,
      "olic": 4267,
      "plays": 4268,
      "financ": 4269,
      "necess": 4270,
      "Carol": 4271,
      "atives": 4272,
      "DV": 4273,
      "Mel": 4274,
      "yet": 4275,
      "respectively": 4276,
      "associated": 4277,
      "mic": 4278,
      "inent": 4279,
      "attacked": 4280,
      "Sir": 4281,
      "bul": 4282,
      "ails": 4283,
      "Hot": 4284,
      "numerous": 4285,
      "Martin": 4286,
      "1995": 4287,
      "Kent": 4288,
      "Central": 4289,
      "needed": 4290,
      "Trans": 4291,
      "actor": 4292,
      "mist": 4293,
      "heart": 4294,
      "Angeles": 4295,
      "grand": 4296,
      "ider": 4297,
      "stitute": 4298,
      "rout": 4299,
      "nature": 4300,
      "veh": 4301,
      "ado": 4302,
      "Francis": 4303,
      "friends": 4304,
      "uter": 4305,
      "impact": 4306,
      "distribut": 4307,
      "scient": 4308,
      "launched": 4309,
      "constructed": 4310,
      "cand": 4311,
      "occurred": 4312,
      "conditions": 4313,
      "stitution": 4314,
      "contains": 4315,
      "information": 4316,
      "shown": 4317,
      "domin": 4318,
      "pool": 4319,
      "sales": 4320,
      "attempted": 4321,
      "Congress": 4322,
      "estival": 4323,
      "books": 4324,
      "uments": 4325,
      "uals": 4326,
      "kind": 4327,
      "exam": 4328,
      "step": 4329,
      "struction": 4330,
      "piece": 4331,
      "2nd": 4332,
      "ications": 4333,
      "singer": 4334,
      "critical": 4335,
      "Prince": 4336,
      "Cle": 4337,
      "Bob": 4338,
      "Hal": 4339,
      "2016": 4340,
      "secur": 4341,
      "whole": 4342,
      "premi": 4343,
      "Mont": 4344,
      "1996": 4345,
      "19th": 4346,
      "ulf": 4347,
      "1950": 4348,
      "marri": 4349,
      "zz": 4350,
      "depression": 4351,
      "think": 4352,
      "Group": 4353,
      "ills": 4354,
      "earned": 4355,
      "ioned": 4356,
      "referred": 4357,
      "produce": 4358,
      "Empire": 4359,
      "cere": 4360,
      "mom": 4361,
      "letter": 4362,
      "Produ": 4363,
      "amount": 4364,
      "vention": 4365,
      "Not": 4366,
      "selected": 4367,
      "render": 4368,
      "46": 4369,
      "dev": 4370,
      "numbers": 4371,
      "distin": 4372,
      "finally": 4373,
      "smaller": 4374,
      "umed": 4375,
      "Pan": 4376,
      "resulted": 4377,
      "Penn": 4378,
      "Jose": 4379,
      "chief": 4380,
      "revol": 4381,
      "Cy": 4382,
      "fighting": 4383,
      "oph": 4384,
      "Out": 4385,
      "bio": 4386,
      "oil": 4387,
      "princ": 4388,
      "gain": 4389,
      "grant": 4390,
      "houses": 4391,
      "vic": 4392,
      "captain": 4393,
      "Camp": 4394,
      "slight": 4395,
      "celebr": 4396,
      "industry": 4397,
      "1994": 4398,
      "Italian": 4399,
      "largely": 4400,
      "wound": 4401,
      "ellow": 4402,
      "RA": 4403,
      "utch": 4404,
      "unit": 4405,
      "bing": 4406,
      "Ver": 4407,
      "commented": 4408,
      "DVD": 4409,
      "Corps": 4410,
      "Fer": 4411,
      "sched": 4412,
      "Ru": 4413,
      "ordin": 4414,
      "audience": 4415,
      "unable": 4416,
      "notes": 4417,
      "education": 4418,
      "acting": 4419,
      "traditional": 4420,
      "Crit": 4421,
      "trade": 4422,
      "artist": 4423,
      "atest": 4424,
      "gent": 4425,
      "legisl": 4426,
      "directly": 4427,
      "Eli": 4428,
      "ift": 4429,
      "improve": 4430,
      "ify": 4431,
      "recover": 4432,
      "Final": 4433,
      "Sto": 4434,
      "attention": 4435,
      "double": 4436,
      "sister": 4437,
      "dol": 4438,
      "refused": 4439,
      "spl": 4440,
      "Viet": 4441,
      "positions": 4442,
      "jun": 4443,
      "royal": 4444,
      "primary": 4445,
      "newsp": 4446,
      "method": 4447,
      "Philip": 4448,
      "coup": 4449,
      "Command": 4450,
      "secret": 4451,
      "Michigan": 4452,
      "imm": 4453,
      "ows": 4454,
      "blood": 4455,
      "lif": 4456,
      "horse": 4457,
      "quarters": 4458,
      "ighter": 4459,
      "180": 4460,
      "male": 4461,
      "below": 4462,
      "gradu": 4463,
      "web": 4464,
      "officer": 4465,
      "aland": 4466,
      "declared": 4467,
      "hero": 4468,
      "kin": 4469,
      "spect": 4470,
      "enjoy": 4471,
      "Long": 4472,
      "science": 4473,
      "Gar": 4474,
      "Wales": 4475,
      "Sol": 4476,
      "meant": 4477,
      "performances": 4478,
      "religious": 4479,
      "iff": 4480,
      "Spe": 4481,
      "standard": 4482,
      "Mass": 4483,
      "alle": 4484,
      "train": 4485,
      "Republic": 4486,
      "undred": 4487,
      "indic": 4488,
      "ray": 4489,
      "Rh": 4490,
      "owned": 4491,
      "mos": 4492,
      "commander": 4493,
      "lav": 4494,
      "middle": 4495,
      "conflict": 4496,
      "More": 4497,
      "izing": 4498,
      "ranch": 4499,
      "regard": 4500,
      "matches": 4501,
      "Cath": 4502,
      "repe": 4503,
      "orders": 4504,
      "ump": 4505,
      "kes": 4506,
      "achi": 4507,
      "model": 4508,
      "records": 4509,
      "Lin": 4510,
      "Democr": 4511,
      "rated": 4512,
      "Acad": 4513,
      "ett": 4514,
      "55": 4515,
      "wear": 4516,
      "Care": 4517,
      "Team": 4518,
      "pul": 4519,
      "competition": 4520,
      "progress": 4521,
      "ipal": 4522,
      "serious": 4523,
      "Ox": 4524,
      "district": 4525,
      "antasy": 4526,
      "Hel": 4527,
      "ka": 4528,
      "Sup": 4529,
      "severe": 4530,
      "vocals": 4531,
      "session": 4532,
      "viewers": 4533,
      "northeast": 4534,
      "Minister": 4535,
      "Several": 4536,
      "icient": 4537,
      "uten": 4538,
      "ady": 4539,
      "thr": 4540,
      "1992": 4541,
      "Major": 4542,
      "abandon": 4543,
      "energy": 4544,
      "document": 4545,
      "Gi": 4546,
      "rapid": 4547,
      "miral": 4548,
      "drum": 4549,
      "Chris": 4550,
      "dro": 4551,
      "centre": 4552,
      "cases": 4553,
      "Mem": 4554,
      "arrow": 4555,
      "forest": 4556,
      "die": 4557,
      "Lit": 4558,
      "continue": 4559,
      "itation": 4560,
      "dut": 4561,
      "orm": 4562,
      "iation": 4563,
      "atre": 4564,
      "traff": 4565,
      "Fore": 4566,
      "44": 4567,
      "theme": 4568,
      "oft": 4569,
      "wick": 4570,
      "Er": 4571,
      "mes": 4572,
      "determin": 4573,
      "writers": 4574,
      "Time": 4575,
      "favour": 4576,
      "nearby": 4577,
      "iled": 4578,
      "highly": 4579,
      "aware": 4580,
      "adult": 4581,
      "ishop": 4582,
      "Zealand": 4583,
      "separate": 4584,
      "combat": 4585,
      "Four": 4586,
      "atal": 4587,
      "Fox": 4588,
      "Soci": 4589,
      "cam": 4590,
      "thes": 4591,
      "Mexico": 4592,
      "effort": 4593,
      "presented": 4594,
      "attended": 4595,
      "culture": 4596,
      "bank": 4597,
      "incorpor": 4598,
      "reduced": 4599,
      "African": 4600,
      "annual": 4601,
      "urt": 4602,
      "edition": 4603,
      "metal": 4604,
      "practice": 4605,
      "20th": 4606,
      "arts": 4607,
      "umn": 4608,
      "except": 4609,
      "ogue": 4610,
      "rossing": 4611,
      "oo": 4612,
      "1930": 4613,
      "means": 4614,
      "sec": 4615,
      "levels": 4616,
      "divided": 4617,
      "Haw": 4618,
      "neigh": 4619,
      "osen": 4620,
      "tried": 4621,
      "ski": 4622,
      "Sum": 4623,
      "contact": 4624,
      "girl": 4625,
      "movie": 4626,
      "rang": 4627,
      "marriage": 4628,
      "omen": 4629,
      "thick": 4630,
      "twenty": 4631,
      "Ev": 4632,
      "accepted": 4633,
      "stating": 4634,
      "1993": 4635,
      "Madonna": 4636,
      "architect": 4637,
      "1991": 4638,
      "McC": 4639,
      "maxim": 4640,
      "aired": 4641,
      "responsible": 4642,
      "serve": 4643,
      "rein": 4644,
      "quality": 4645,
      "hi": 4646,
      "Wall": 4647,
      "mind": 4648,
      "Stone": 4649,
      "candid": 4650,
      "direction": 4651,
      "65": 4652,
      "Dou": 4653,
      "pick": 4654,
      "Scotland": 4655,
      "ona": 4656,
      "charge": 4657,
      "advance": 4658,
      "seem": 4659,
      "bled": 4660,
      "innings": 4661,
      "fru": 4662,
      "rating": 4663,
      "Jones": 4664,
      "words": 4665,
      "ands": 4666,
      "han": 4667,
      "iding": 4668,
      "Fed": 4669,
      "eve": 4670,
      "schools": 4671,
      "Their": 4672,
      "400": 4673,
      "pi": 4674,
      "wealth": 4675,
      "network": 4676,
      "ieve": 4677,
      "Dar": 4678,
      "rare": 4679,
      "managed": 4680,
      "Moun": 4681,
      "mob": 4682,
      "passing": 4683,
      "pret": 4684,
      "Simp": 4685,
      "function": 4686,
      "ria": 4687,
      "award": 4688,
      "ression": 4689,
      "Department": 4690,
      "Greek": 4691,
      "log": 4692,
      "illery": 4693,
      "efforts": 4694,
      "sides": 4695,
      "college": 4696,
      "economic": 4697,
      "pit": 4698,
      "resulting": 4699,
      "meaning": 4700,
      "paid": 4701,
      "ti": 4702,
      "Book": 4703,
      "psy": 4704,
      "dropped": 4705,
      "utenant": 4706,
      "showed": 4707,
      "asion": 4708,
      "guest": 4709,
      "rif": 4710,
      "iving": 4711,
      "Infantry": 4712,
      "inside": 4713,
      "environment": 4714,
      "Three": 4715,
      "mountain": 4716,
      "Rol": 4717,
      "murder": 4718,
      "kept": 4719,
      "hus": 4720,
      "dem": 4721,
      "cust": 4722,
      "allowing": 4723,
      "Americ": 4724,
      "cyclone": 4725,
      "ceremon": 4726,
      "Tim": 4727,
      "winter": 4728,
      "begins": 4729,
      "Bost": 4730,
      "controver": 4731,
      "variety": 4732,
      "morning": 4733,
      "chap": 4734,
      "nest": 4735,
      "Commit": 4736,
      "Games": 4737,
      "voy": 4738,
      "settle": 4739,
      "Williams": 4740,
      "ceeded": 4741,
      "arrest": 4742,
      "waters": 4743,
      "electric": 4744,
      "Service": 4745,
      "ole": 4746,
      "peror": 4747,
      "Sar": 4748,
      "inches": 4749,
      "schol": 4750,
      "farm": 4751,
      "Creek": 4752,
      "titled": 4753,
      "Tre": 4754,
      "Alli": 4755,
      "Records": 4756,
      "activity": 4757,
      "thur": 4758,
      "write": 4759,
      "lam": 4760,
      "airs": 4761,
      "continues": 4762,
      "ding": 4763,
      "rule": 4764,
      "hall": 4765,
      "drew": 4766,
      "Sur": 4767,
      "95": 4768,
      "dance": 4769,
      "symb": 4770,
      "squadron": 4771,
      "path": 4772,
      "oon": 4773,
      "source": 4774,
      "Parliament": 4775,
      "founded": 4776,
      "broke": 4777,
      "Up": 4778,
      "Stan": 4779,
      "SA": 4780,
      "restr": 4781,
      "Men": 4782,
      "pitch": 4783,
      "parents": 4784,
      "Post": 4785,
      "Foot": 4786,
      "News": 4787,
      "Will": 4788,
      "Hor": 4789,
      "hundred": 4790,
      "iced": 4791,
      "conducted": 4792,
      "starting": 4793,
      "phere": 4794,
      "sole": 4795,
      "your": 4796,
      "ites": 4797,
      "strugg": 4798,
      "vised": 4799,
      "Egy": 4800,
      "Ire": 4801,
      "excl": 4802,
      "Society": 4803,
      "Oh": 4804,
      "concert": 4805,
      "ounds": 4806,
      "presence": 4807,
      "1942": 4808,
      "aven": 4809,
      "ram": 4810,
      "Mic": 4811,
      "metres": 4812,
      "Southern": 4813,
      "zer": 4814,
      "spot": 4815,
      "Bridge": 4816,
      "SR": 4817,
      "speech": 4818,
      "BA": 4819,
      "sequence": 4820,
      "exhib": 4821,
      "crow": 4822,
      "selling": 4823,
      "cus": 4824,
      "rot": 4825,
      "multiple": 4826,
      "things": 4827,
      "transferred": 4828,
      "da": 4829,
      "companies": 4830,
      "contrast": 4831,
      "Committee": 4832,
      "portun": 4833,
      "foreign": 4834,
      "deliver": 4835,
      "Arthur": 4836,
      "enemy": 4837,
      "Ba": 4838,
      "pal": 4839,
      "oration": 4840,
      "peaked": 4841,
      "Latin": 4842,
      "pedo": 4843,
      "Captain": 4844,
      "Georg": 4845,
      "obtain": 4846,
      "Govern": 4847,
      "Hung": 4848,
      "isation": 4849,
      "plat": 4850,
      "stories": 4851,
      "recomm": 4852,
      "content": 4853,
      "Like": 4854,
      "Oxford": 4855,
      "becomes": 4856,
      "traffic": 4857,
      "account": 4858,
      "Far": 4859,
      "Admiral": 4860,
      "Spec": 4861,
      "mess": 4862,
      "greater": 4863,
      "Cross": 4864,
      "ami": 4865,
      "scoring": 4866,
      "Chief": 4867,
      "Joseph": 4868,
      "vocal": 4869,
      "concluded": 4870,
      "Secret": 4871,
      "potential": 4872,
      "Harrison": 4873,
      "property": 4874,
      "attempts": 4875,
      "loy": 4876,
      "Boston": 4877,
      "relatively": 4878,
      "Sat": 4879,
      "strength": 4880,
      "Manchester": 4881,
      "extens": 4882,
      "demonstr": 4883,
      "thir": 4884,
      "observed": 4885,
      "primarily": 4886,
      "birds": 4887,
      "federal": 4888,
      "lock": 4889,
      "va": 4890,
      "actually": 4891,
      "Because": 4892,
      "Before": 4893,
      "Egypt": 4894,
      "Kar": 4895,
      "sets": 4896,
      "prise": 4897,
      "financial": 4898,
      "odd": 4899,
      "animals": 4900,
      "64": 4901,
      "osaur": 4902,
      "Class": 4903,
      "collection": 4904,
      "propos": 4905,
      "Jeff": 4906,
      "Hurricane": 4907,
      "journal": 4908,
      "figure": 4909,
      "Sil": 4910,
      "Swed": 4911,
      "prov": 4912,
      "opportun": 4913,
      "onic": 4914,
      "eth": 4915,
      "identified": 4916,
      "featuring": 4917,
      "Commission": 4918,
      "ott": 4919,
      "repair": 4920,
      "tourn": 4921,
      "Life": 4922,
      "ky": 4923,
      "Den": 4924,
      "1944": 4925,
      "istics": 4926,
      "bles": 4927,
      "missed": 4928,
      "scale": 4929,
      "withdraw": 4930,
      "78": 4931,
      "distance": 4932,
      "situation": 4933,
      "Little": 4934,
      "mechan": 4935,
      "share": 4936,
      "Battalion": 4937,
      "versions": 4938,
      "independent": 4939,
      "passeng": 4940,
      "mond": 4941,
      "extreme": 4942,
      "corn": 4943,
      "ange": 4944,
      "Ram": 4945,
      "poet": 4946,
      "41": 4947,
      "uge": 4948,
      "thous": 4949,
      "anger": 4950,
      "Fred": 4951,
      "Dire": 4952,
      "resist": 4953,
      "Ken": 4954,
      "annel": 4955,
      "BBC": 4956,
      "fa": 4957,
      "collabor": 4958,
      "Paris": 4959,
      "Brad": 4960,
      "anna": 4961,
      "inking": 4962,
      "slightly": 4963,
      "image": 4964,
      "Series": 4965,
      "faced": 4966,
      "resh": 4967,
      "replac": 4968,
      "Fre": 4969,
      "olf": 4970,
      "suppl": 4971,
      "IS": 4972,
      "concent": 4973,
      "perial": 4974,
      "Gil": 4975,
      "sa": 4976,
      "here": 4977,
      "torpedo": 4978,
      "lap": 4979,
      "seconds": 4980,
      "Line": 4981,
      "150": 4982,
      "today": 4983,
      "colour": 4984,
      "Dun": 4985,
      "42": 4986,
      "ada": 4987,
      "Ann": 4988,
      "alleg": 4989,
      "1990": 4990,
      "trial": 4991,
      "completely": 4992,
      "ultimately": 4993,
      "proved": 4994,
      "square": 4995,
      "inte": 4996,
      "confirmed": 4997,
      "Croat": 4998,
      "76": 4999,
      "maximum": 5000,
      "vation": 5001,
      "behav": 5002,
      "pack": 5003,
      "struck": 5004,
      "prop": 5005,
      "Histor": 5006,
      "Light": 5007,
      "Max": 5008,
      "Academy": 5009,
      "sought": 5010,
      "cities": 5011,
      "Stephen": 5012,
      "branch": 5013,
      "1920": 5014,
      "tellig": 5015,
      "1945": 5016,
      "green": 5017,
      "policy": 5018,
      "dise": 5019,
      "calling": 5020,
      "blue": 5021,
      "serving": 5022,
      "stein": 5023,
      "society": 5024,
      "beth": 5025,
      "ita": 5026,
      "combined": 5027,
      "mainly": 5028,
      "weather": 5029,
      "cers": 5030,
      "Museum": 5031,
      "Van": 5032,
      "Saint": 5033,
      "ya": 5034,
      "commissioned": 5035,
      "designated": 5036,
      "Wal": 5037,
      "minim": 5038,
      "1941": 5039,
      "explained": 5040,
      "43": 5041,
      "cin": 5042,
      "naval": 5043,
      "officials": 5044,
      "northwest": 5045,
      "lvan": 5046,
      "influenced": 5047,
      "boat": 5048,
      "Bat": 5049,
      "border": 5050,
      "master": 5051,
      "benef": 5052,
      "conver": 5053,
      "vessel": 5054,
      "powerful": 5055,
      "Entertainment": 5056,
      "AC": 5057,
      "Italy": 5058,
      "Pop": 5059,
      "Gir": 5060,
      "Way": 5061,
      "alongside": 5062,
      "batter": 5063,
      "gn": 5064,
      "eval": 5065,
      "HL": 5066,
      "85": 5067,
      "gained": 5068,
      "visions": 5069,
      "Lee": 5070,
      "Brigade": 5071,
      "resol": 5072,
      "Americans": 5073,
      "ulations": 5074,
      "sources": 5075,
      "battleship": 5076,
      "orses": 5077,
      "older": 5078,
      "attend": 5079,
      "Vol": 5080,
      "successfully": 5081,
      "background": 5082,
      "systems": 5083,
      "organization": 5084,
      "says": 5085,
      "ito": 5086,
      "gency": 5087,
      "Ca": 5088,
      "astic": 5089,
      "theory": 5090,
      "peace": 5091,
      "industri": 5092,
      "recent": 5093,
      "feed": 5094,
      "Arab": 5095,
      "nominated": 5096,
      "sky": 5097,
      "alone": 5098,
      "artists": 5099,
      "reaching": 5100,
      "ils": 5101,
      "encour": 5102,
      "Regiment": 5103,
      "widely": 5104,
      "promoted": 5105,
      "problem": 5106,
      "stay": 5107,
      "yer": 5108,
      "sust": 5109,
      "seg": 5110,
      "ements": 5111,
      "ses": 5112,
      "elve": 5113,
      "edge": 5114,
      "husband": 5115,
      "results": 5116,
      "Ireland": 5117,
      "Ob": 5118,
      "bud": 5119,
      "Avenue": 5120,
      "news": 5121,
      "bass": 5122,
      "Gre": 5123,
      "bat": 5124,
      "dif": 5125,
      "sexual": 5126,
      "adel": 5127,
      "travel": 5128,
      "Middle": 5129,
      "brary": 5130,
      "Spr": 5131,
      "albums": 5132,
      "subsequent": 5133,
      "aling": 5134,
      "Fleet": 5135,
      "greatest": 5136,
      "cher": 5137,
      "roads": 5138,
      "invasion": 5139,
      "offer": 5140,
      "smo": 5141,
      "Live": 5142,
      "officially": 5143,
      "arms": 5144,
      "1989": 5145,
      "sixth": 5146,
      "Otto": 5147,
      "county": 5148,
      "affected": 5149,
      "fair": 5150,
      "lip": 5151,
      "southeast": 5152,
      "iano": 5153,
      "pilot": 5154,
      "opin": 5155,
      "acu": 5156,
      "illa": 5157,
      "shortly": 5158,
      "1943": 5159,
      "push": 5160,
      "din": 5161,
      "theless": 5162,
      "expressed": 5163,
      "contest": 5164,
      "spring": 5165,
      "appearances": 5166,
      "causing": 5167,
      "reception": 5168,
      "true": 5169,
      "doing": 5170,
      "Common": 5171,
      "represented": 5172,
      "armed": 5173,
      "Victoria": 5174,
      "Lie": 5175,
      "Ray": 5176,
      "shell": 5177,
      "organized": 5178,
      "Wind": 5179,
      "nown": 5180,
      "sense": 5181,
      "arent": 5182,
      "ols": 5183,
      "physical": 5184,
      "ota": 5185,
      "residents": 5186,
      "urban": 5187,
      "capac": 5188,
      "defense": 5189,
      "Catholic": 5190,
      "tun": 5191,
      "tells": 5192,
      "pieces": 5193,
      "aded": 5194,
      "Tropical": 5195,
      "seasons": 5196,
      "aga": 5197,
      "teach": 5198,
      "ansion": 5199,
      "Valley": 5200,
      "laid": 5201,
      "Land": 5202,
      "negot": 5203,
      "intend": 5204,
      "ategory": 5205,
      "CD": 5206,
      "itude": 5207,
      "179": 5208,
      "growth": 5209,
      "semb": 5210,
      "avoid": 5211,
      "require": 5212,
      "hospital": 5213,
      "ufact": 5214,
      "bodies": 5215,
      "MD": 5216,
      "IV": 5217,
      "actors": 5218,
      "Bul": 5219,
      "Dutch": 5220,
      "Though": 5221,
      "kg": 5222,
      "wal": 5223,
      "visited": 5224,
      "focus": 5225,
      "600": 5226,
      "dog": 5227,
      "ached": 5228,
      "chair": 5229,
      "fired": 5230,
      "Week": 5231,
      "artillery": 5232,
      "Bre": 5233,
      "3rd": 5234,
      "SS": 5235,
      "advant": 5236,
      "Commun": 5237,
      "plement": 5238,
      "Bus": 5239,
      "weapons": 5240,
      "atures": 5241,
      "fellow": 5242,
      "Show": 5243,
      "ahead": 5244,
      "vote": 5245,
      "Football": 5246,
      "arian": 5247,
      "dition": 5248,
      "Through": 5249,
      "eas": 5250,
      "usual": 5251,
      "question": 5252,
      "inson": 5253,
      "iron": 5254,
      "lvania": 5255,
      "heavily": 5256,
      "eigh": 5257,
      "Upon": 5258,
      "core": 5259,
      "leaders": 5260,
      "Kenn": 5261,
      "ysis": 5262,
      "Mountain": 5263,
      "1980s": 5264,
      "1940": 5265,
      "pedition": 5266,
      "PA": 5267,
      "Young": 5268,
      "spread": 5269,
      "student": 5270,
      "creation": 5271,
      "Ry": 5272,
      "Jul": 5273,
      "governor": 5274,
      "apparent": 5275,
      "Hy": 5276,
      "studies": 5277,
      "pun": 5278,
      "Good": 5279,
      "Well": 5280,
      "patter": 5281,
      "executive": 5282,
      "passes": 5283,
      "Tay": 5284,
      "floor": 5285,
      "ronic": 5286,
      "protest": 5287,
      "Ash": 5288,
      "ustr": 5289,
      "agreement": 5290,
      "arg": 5291,
      "wave": 5292,
      "capture": 5293,
      "debuted": 5294,
      "kilomet": 5295,
      "prominent": 5296,
      "ares": 5297,
      "Daniel": 5298,
      "ingu": 5299,
      "sions": 5300,
      "mile": 5301,
      "consisted": 5302,
      "setting": 5303,
      "Hum": 5304,
      "Def": 5305,
      "condition": 5306,
      "injury": 5307,
      "figures": 5308,
      "begin": 5309,
      "rical": 5310,
      "equipment": 5311,
      "amber": 5312,
      "instrument": 5313,
      "Bor": 5314,
      "lic": 5315,
      "Rog": 5316,
      "catch": 5317,
      "claims": 5318,
      "launch": 5319,
      "necessary": 5320,
      "negative": 5321,
      "matter": 5322,
      "defend": 5323,
      "Bey": 5324,
      "phil": 5325,
      "argued": 5326,
      "believ": 5327,
      "transl": 5328,
      "ki": 5329,
      "ights": 5330,
      "preser": 5331,
      "Eliza": 5332,
      "opposed": 5333,
      "earth": 5334,
      "dated": 5335,
      "anta": 5336,
      "Of": 5337,
      "normal": 5338,
      "returning": 5339,
      "Civil": 5340,
      "Homer": 5341,
      "Mah": 5342,
      "Ill": 5343,
      "contemporary": 5344,
      "fuel": 5345,
      "istrict": 5346,
      "wit": 5347,
      "Ele": 5348,
      "iated": 5349,
      "Top": 5350,
      "Mu": 5351,
      "arden": 5352,
      "1970s": 5353,
      "Os": 5354,
      "otes": 5355,
      "Northern": 5356,
      "famous": 5357,
      "pict": 5358,
      "Home": 5359,
      "ote": 5360,
      "graphic": 5361,
      "Jon": 5362,
      "77": 5363,
      "ube": 5364,
      "maintained": 5365,
      "rick": 5366,
      "glo": 5367,
      "frequently": 5368,
      "1960s": 5369,
      "couple": 5370,
      "table": 5371,
      "deg": 5372,
      "stations": 5373,
      "Main": 5374,
      "types": 5375,
      "finish": 5376,
      "District": 5377,
      "oul": 5378,
      "criticized": 5379,
      "activities": 5380,
      "kick": 5381,
      "ockey": 5382,
      "paper": 5383,
      "Sub": 5384,
      "sn": 5385,
      "Tele": 5386,
      "ien": 5387,
      "Fri": 5388,
      "Carolina": 5389,
      "deck": 5390,
      "Gal": 5391,
      "toward": 5392,
      "von": 5393,
      "rect": 5394,
      "Marsh": 5395,
      "heard": 5396,
      "machine": 5397,
      "mut": 5398,
      "drug": 5399,
      "citiz": 5400,
      "discuss": 5401,
      "occasion": 5402,
      "aces": 5403,
      "tournament": 5404,
      "reference": 5405,
      "Ocean": 5406,
      "reign": 5407,
      "Bond": 5408,
      "singles": 5409,
      "trees": 5410,
      "acts": 5411,
      "operated": 5412,
      "else": 5413,
      "folk": 5414,
      "1987": 5415,
      "Scottish": 5416,
      "senior": 5417,
      "planet": 5418,
      "acher": 5419,
      "rig": 5420,
      "ledge": 5421,
      "aspect": 5422,
      "medical": 5423,
      "territory": 5424,
      "trying": 5425,
      "worldwide": 5426,
      "vor": 5427,
      "achieve": 5428,
      "value": 5429,
      "eway": 5430,
      "Government": 5431,
      "1988": 5432,
      "atom": 5433,
      "Writ": 5434,
      "coal": 5435,
      "Fantasy": 5436,
      "System": 5437,
      "Governor": 5438,
      "TC": 5439,
      "eye": 5440,
      "Tem": 5441,
      "modif": 5442,
      "Operation": 5443,
      "66": 5444,
      "narr": 5445,
      "Background": 5446,
      "Ly": 5447,
      "horses": 5448,
      "holds": 5449,
      "Holly": 5450,
      "treatment": 5451,
      "historian": 5452,
      "color": 5453,
      "Colon": 5454,
      "hands": 5455,
      "sembly": 5456,
      "ocks": 5457,
      "Field": 5458,
      "Castle": 5459,
      "rainfall": 5460,
      "accident": 5461,
      "looking": 5462,
      "university": 5463,
      "Dev": 5464,
      "views": 5465,
      "therefore": 5466,
      "rum": 5467,
      "supply": 5468,
      "challeng": 5469,
      "Duke": 5470,
      "lers": 5471,
      "ini": 5472,
      "championship": 5473,
      "grew": 5474,
      "split": 5475,
      "chosen": 5476,
      "leaves": 5477,
      "assault": 5478,
      "shap": 5479,
      "crash": 5480,
      "Jud": 5481,
      "twice": 5482,
      "gam": 5483,
      "Studios": 5484,
      "gian": 5485,
      "ressed": 5486,
      "Short": 5487,
      "incident": 5488,
      "Polish": 5489,
      "shore": 5490,
      "reports": 5491,
      "cance": 5492,
      "walls": 5493,
      "stood": 5494,
      "rael": 5495,
      "Pen": 5496,
      "zed": 5497,
      "imen": 5498,
      "consecut": 5499,
      "ker": 5500,
      "escape": 5501,
      "Senate": 5502,
      "offensive": 5503,
      "velopment": 5504,
      "teenth": 5505,
      "stre": 5506,
      "Eastern": 5507,
      "follows": 5508,
      "Lew": 5509,
      "billion": 5510,
      "soundtrack": 5511,
      "acted": 5512,
      "Andrew": 5513,
      "wounded": 5514,
      "schedul": 5515,
      "manufact": 5516,
      "prompt": 5517,
      "editor": 5518,
      "pursu": 5519,
      "surrounding": 5520,
      "adapt": 5521,
      "Hard": 5522,
      "gate": 5523,
      "contained": 5524,
      "esc": 5525,
      "steam": 5526,
      "degree": 5527,
      "Pennsy": 5528,
      "ucky": 5529,
      "herself": 5530,
      "heads": 5531,
      "workers": 5532,
      "Christmas": 5533,
      "typically": 5534,
      "oting": 5535,
      "street": 5536,
      "rane": 5537,
      "pton": 5538,
      "servation": 5539,
      "Allied": 5540,
      "fiction": 5541,
      "simply": 5542,
      "lives": 5543,
      "symp": 5544,
      "Mean": 5545,
      "ette": 5546,
      "Wilson": 5547,
      "unknown": 5548,
      "Beat": 5549,
      "railway": 5550,
      "Mul": 5551,
      "wart": 5552,
      "rival": 5553,
      "regarded": 5554,
      "element": 5555,
      "Columb": 5556,
      "Dam": 5557,
      "mn": 5558,
      "Bell": 5559,
      "Taylor": 5560,
      "WW": 5561,
      "emphas": 5562,
      "dete": 5563,
      "Joe": 5564,
      "chose": 5565,
      "1986": 5566,
      "consecutive": 5567,
      "drive": 5568,
      "chance": 5569,
      "nothing": 5570,
      "Alexander": 5571,
      "authority": 5572,
      "cannot": 5573,
      "currently": 5574,
      "Each": 5575,
      "tail": 5576,
      "growing": 5577,
      "marine": 5578,
      "ifying": 5579,
      "newly": 5580,
      "ano": 5581,
      "awa": 5582,
      "Corn": 5583,
      "brown": 5584,
      "participated": 5585,
      "Rod": 5586,
      "website": 5587,
      "throw": 5588,
      "Wel": 5589,
      "casual": 5590,
      "Ha": 5591,
      "spirit": 5592,
      "err": 5593,
      "mentioned": 5594,
      "broken": 5595,
      "producers": 5596,
      "newspaper": 5597,
      "Tech": 5598,
      "Down": 5599,
      "Blue": 5600,
      "grade": 5601,
      "tree": 5602,
      "losing": 5603,
      "capacity": 5604,
      "isters": 5605,
      "ancing": 5606,
      "experiment": 5607,
      "exc": 5608,
      "Fam": 5609,
      "roof": 5610,
      "compar": 5611,
      "risk": 5612,
      "filming": 5613,
      "advanced": 5614,
      "adopted": 5615,
      "extra": 5616,
      "Festival": 5617,
      "advert": 5618,
      "firm": 5619,
      "moment": 5620,
      "boats": 5621,
      "Pennsylvania": 5622,
      "oppon": 5623,
      "disp": 5624,
      "What": 5625,
      "ilies": 5626,
      "opposition": 5627,
      "edom": 5628,
      "mann": 5629,
      "strike": 5630,
      "Storm": 5631,
      "Chart": 5632,
      "aud": 5633,
      "zy": 5634,
      "Islands": 5635,
      "basis": 5636,
      "uth": 5637,
      "door": 5638,
      "council": 5639,
      "oppos": 5640,
      "sites": 5641,
      "Sound": 5642,
      "budget": 5643,
      "imag": 5644,
      "plants": 5645,
      "Reception": 5646,
      "Night": 5647,
      "clo": 5648,
      "Liber": 5649,
      "Mike": 5650,
      "Kr": 5651,
      "fare": 5652,
      "abandoned": 5653,
      "yle": 5654,
      "committee": 5655,
      "Irish": 5656,
      "Further": 5657,
      "aved": 5658,
      "uce": 5659,
      "Head": 5660,
      "56": 5661,
      "Ret": 5662,
      "silver": 5663,
      "flying": 5664,
      "franch": 5665,
      "gal": 5666,
      "filmed": 5667,
      "bute": 5668,
      "otional": 5669,
      "ables": 5670,
      "creating": 5671,
      "purpose": 5672,
      "sections": 5673,
      "phas": 5674,
      "tower": 5675,
      "honor": 5676,
      "Albert": 5677,
      "Harry": 5678,
      "99": 5679,
      "homes": 5680,
      "Coast": 5681,
      "Spain": 5682,
      "inth": 5683,
      "chor": 5684,
      "Person": 5685,
      "wild": 5686,
      "expansion": 5687,
      "umber": 5688,
      "encounter": 5689,
      "ounger": 5690,
      "Jersey": 5691,
      "individuals": 5692,
      "possibly": 5693,
      "ju": 5694,
      "wel": 5695,
      "illy": 5696,
      "rush": 5697,
      "landing": 5698,
      "ager": 5699,
      "1990s": 5700,
      "beyond": 5701,
      "apers": 5702,
      "sail": 5703,
      "rank": 5704,
      "measure": 5705,
      "eration": 5706,
      "Bon": 5707,
      "failure": 5708,
      "fly": 5709,
      "Square": 5710,
      "deploy": 5711,
      "tery": 5712,
      "historical": 5713,
      "killing": 5714,
      "draft": 5715,
      "places": 5716,
      "Ron": 5717,
      "1939": 5718,
      "multi": 5719,
      "lane": 5720,
      "CA": 5721,
      "uff": 5722,
      "Origin": 5723,
      "achieved": 5724,
      "occupied": 5725,
      "believe": 5726,
      "genus": 5727,
      "paralle": 5728,
      "management": 5729,
      "Elizabeth": 5730,
      "ctic": 5731,
      "Bol": 5732,
      "roles": 5733,
      "intellig": 5734,
      "igg": 5735,
      "Production": 5736,
      "Ros": 5737,
      "sche": 5738,
      "Republ": 5739,
      "Public": 5740,
      "brid": 5741,
      "narrow": 5742,
      "retired": 5743,
      "ideas": 5744,
      "Institute": 5745,
      "azz": 5746,
      "58": 5747,
      "integr": 5748,
      "eu": 5749,
      "wid": 5750,
      "Israel": 5751,
      "rooms": 5752,
      "Kel": 5753,
      "improved": 5754,
      "disease": 5755,
      "bility": 5756,
      "crowd": 5757,
      "perman": 5758,
      "Broad": 5759,
      "eds": 5760,
      "briefly": 5761,
      "yl": 5762,
      "Due": 5763,
      "auto": 5764,
      "1985": 5765,
      "Revolution": 5766,
      "nick": 5767,
      "seat": 5768,
      "Bart": 5769,
      "effective": 5770,
      "porters": 5771,
      "1968": 5772,
      "granted": 5773,
      "administration": 5774,
      "Liver": 5775,
      "ocated": 5776,
      "mounted": 5777,
      "repeated": 5778,
      "receive": 5779,
      "sports": 5780,
      "personnel": 5781,
      "perfect": 5782,
      "advantage": 5783,
      "rejected": 5784,
      "ancy": 5785,
      "Meanwhile": 5786,
      "Republican": 5787,
      "unique": 5788,
      "twelve": 5789,
      "gives": 5790,
      "custom": 5791,
      "kilometres": 5792,
      "bom": 5793,
      "extensive": 5794,
      "rise": 5795,
      "leadership": 5796,
      "turns": 5797,
      "ques": 5798,
      "Doctor": 5799,
      "Album": 5800,
      "agg": 5801,
      "hair": 5802,
      "interchange": 5803,
      "avalry": 5804,
      "Clark": 5805,
      "Ven": 5806,
      "Greg": 5807,
      "Jes": 5808,
      "1970": 5809,
      "Ohio": 5810,
      "data": 5811,
      "sufficient": 5812,
      "experienced": 5813,
      "iring": 5814,
      "infantry": 5815,
      "crossing": 5816,
      "Sand": 5817,
      "evacu": 5818,
      "expanded": 5819,
      "controlled": 5820,
      "straight": 5821,
      "describes": 5822,
      "ani": 5823,
      "forming": 5824,
      "solo": 5825,
      "Secretary": 5826,
      "afety": 5827,
      "Board": 5828,
      "champion": 5829,
      "yellow": 5830,
      "choice": 5831,
      "Cub": 5832,
      "zil": 5833,
      "alty": 5834,
      "acquired": 5835,
      "attribut": 5836,
      "adelph": 5837,
      "didn": 5838,
      "credited": 5839,
      "1984": 5840,
      "Sel": 5841,
      "cé": 5842,
      "allows": 5843,
      "tend": 5844,
      "fought": 5845,
      "entr": 5846,
      "Pu": 5847,
      "note": 5848,
      "surrender": 5849,
      "sort": 5850,
      "Philadelph": 5851,
      "ero": 5852,
      "iments": 5853,
      "explos": 5854,
      "security": 5855,
      "determined": 5856,
      "caught": 5857,
      "abin": 5858,
      "animal": 5859,
      "hill": 5860,
      "inf": 5861,
      "vehicles": 5862,
      "suggests": 5863,
      "Are": 5864,
      "families": 5865,
      "venture": 5866,
      "psych": 5867,
      "amin": 5868,
      "titles": 5869,
      "Mir": 5870,
      "Even": 5871,
      "iday": 5872,
      "Arm": 5873,
      "stock": 5874,
      "52": 5875,
      "ancient": 5876,
      "drama": 5877,
      "Cambridge": 5878,
      "Georgia": 5879,
      "Bud": 5880,
      "haps": 5881,
      "article": 5882,
      "Never": 5883,
      "commonly": 5884,
      "guard": 5885,
      "DS": 5886,
      "kins": 5887,
      "Philadelphia": 5888,
      "Hon": 5889,
      "nuclear": 5890,
      "NC": 5891,
      "shark": 5892,
      "comedy": 5893,
      "mod": 5894,
      "seventh": 5895,
      "ivity": 5896,
      "800": 5897,
      "prefer": 5898,
      "eyes": 5899,
      "companied": 5900,
      "Rel": 5901,
      "enc": 5902,
      "Ul": 5903,
      "powers": 5904,
      "Sher": 5905,
      "iful": 5906,
      "sle": 5907,
      "acad": 5908,
      "authorities": 5909,
      "gi": 5910,
      "ardi": 5911,
      "headquarters": 5912,
      "connected": 5913,
      "holding": 5914,
      "anning": 5915,
      "yst": 5916,
      "sand": 5917,
      "sac": 5918,
      "contain": 5919,
      "burgh": 5920,
      "Ten": 5921,
      "Also": 5922,
      "labor": 5923,
      "centuries": 5924,
      "ridge": 5925,
      "islands": 5926,
      "1967": 5927,
      "store": 5928,
      "Addition": 5929,
      "attle": 5930,
      "Russia": 5931,
      "recently": 5932,
      "cultural": 5933,
      "End": 5934,
      "Hit": 5935,
      "ola": 5936,
      "beaut": 5937,
      "protected": 5938,
      "restling": 5939,
      "Point": 5940,
      "simple": 5941,
      "asc": 5942,
      "1980": 5943,
      "Gall": 5944,
      "wise": 5945,
      "estic": 5946,
      "Among": 5947,
      "Ottoman": 5948,
      "umes": 5949,
      "Liverpool": 5950,
      "depict": 5951,
      "finds": 5952,
      "decre": 5953,
      "Nintend": 5954,
      "reput": 5955,
      "singing": 5956,
      "Nintendo": 5957,
      "phone": 5958,
      "lyn": 5959,
      "turret": 5960,
      "battalion": 5961,
      "120": 5962,
      "Rose": 5963,
      "iana": 5964,
      "Chap": 5965,
      "etball": 5966,
      "Ve": 5967,
      "approved": 5968,
      "Columbia": 5969,
      "ont": 5970,
      "speak": 5971,
      "existing": 5972,
      "Asia": 5973,
      "accompanied": 5974,
      "dollar": 5975,
      "Tro": 5976,
      "defence": 5977,
      "goes": 5978,
      "containing": 5979,
      "orche": 5980,
      "entirely": 5981,
      "Pers": 5982,
      "erc": 5983,
      "height": 5984,
      "shop": 5985,
      "96": 5986,
      "fields": 5987,
      "agan": 5988,
      "bands": 5989,
      "Jean": 5990,
      "scheduled": 5991,
      "Prime": 5992,
      "sport": 5993,
      "analysis": 5994,
      "touchdown": 5995,
      "88": 5996,
      "Miss": 5997,
      "contributed": 5998,
      "Lincol": 5999,
      "extr": 6000,
      "themes": 6001,
      "Jenn": 6002,
      "Singap": 6003,
      "protect": 6004,
      "flooding": 6005,
      "Champion": 6006,
      "oll": 6007,
      "aste": 6008,
      "younger": 6009,
      "Development": 6010,
      "provides": 6011,
      "Korean": 6012,
      "computer": 6013,
      "purchased": 6014,
      "adap": 6015,
      "prising": 6016,
      "Lieutenant": 6017,
      "performing": 6018,
      "iny": 6019,
      "awards": 6020,
      "Jun": 6021,
      "1983": 6022,
      "quite": 6023,
      "Brazil": 6024,
      "FL": 6025,
      "locations": 6026,
      "Gulf": 6027,
      "Rus": 6028,
      "oma": 6029,
      "Mos": 6030,
      "isers": 6031,
      "Jewish": 6032,
      "Burn": 6033,
      "51": 6034,
      "Anderson": 6035,
      "arrival": 6036,
      "Hay": 6037,
      "conve": 6038,
      "Lis": 6039,
      "defensive": 6040,
      "Francisco": 6041,
      "viewed": 6042,
      "resem": 6043,
      "Ind": 6044,
      "engaged": 6045,
      "motion": 6046,
      "gather": 6047,
      "Singapore": 6048,
      "ceremony": 6049,
      "headed": 6050,
      "1964": 6051,
      "Order": 6052,
      "Lincoln": 6053,
      "expedition": 6054,
      "illustr": 6055,
      "filled": 6056,
      "Lar": 6057,
      "hang": 6058,
      "formula": 6059,
      "People": 6060,
      "1969": 6061,
      "victim": 6062,
      "mate": 6063,
      "Carey": 6064,
      "Sa": 6065,
      "Radio": 6066,
      "Office": 6067,
      "arc": 6068,
      "Die": 6069,
      "myth": 6070,
      "dedicated": 6071,
      "employed": 6072,
      "ko": 6073,
      "philos": 6074,
      "Han": 6075,
      "fresh": 6076,
      "Bas": 6077,
      "sun": 6078,
      "why": 6079,
      "intensity": 6080,
      "joint": 6081,
      "Disney": 6082,
      "prepared": 6083,
      "ees": 6084,
      "repl": 6085,
      "1914": 6086,
      "79": 6087,
      "1918": 6088,
      "HMS": 6089,
      "structures": 6090,
      "Kir": 6091,
      "PlayStation": 6092,
      "Dark": 6093,
      "cles": 6094,
      "ule": 6095,
      "agement": 6096,
      "industrial": 6097,
      "dry": 6098,
      "outs": 6099,
      "Oli": 6100,
      "1982": 6101,
      "defined": 6102,
      "PC": 6103,
      "charged": 6104,
      "cat": 6105,
      "sens": 6106,
      "1971": 6107,
      "Walter": 6108,
      "4th": 6109,
      "recru": 6110,
      "closely": 6111,
      "escort": 6112,
      "Steve": 6113,
      "consists": 6114,
      "Brian": 6115,
      "negoti": 6116,
      "Miller": 6117,
      "Lewis": 6118,
      "comic": 6119,
      "1966": 6120,
      "Si": 6121,
      "Metro": 6122,
      "drawn": 6123,
      "Ko": 6124,
      "technology": 6125,
      "1972": 6126,
      "Six": 6127,
      "Conference": 6128,
      "piano": 6129,
      "product": 6130,
      "1979": 6131,
      "focused": 6132,
      "Turn": 6133,
      "egg": 6134,
      "enge": 6135,
      "Byz": 6136,
      "Mis": 6137,
      "Once": 6138,
      "facilities": 6139,
      "elimin": 6140,
      "Brook": 6141,
      "18th": 6142,
      "supporting": 6143,
      "criticism": 6144,
      "protection": 6145,
      "union": 6146,
      "Olympic": 6147,
      "preced": 6148,
      "ji": 6149,
      "belong": 6150,
      "earch": 6151,
      "discus": 6152,
      "selection": 6153,
      "etic": 6154,
      "cars": 6155,
      "ilton": 6156,
      "susp": 6157,
      "Byzant": 6158,
      "ec": 6159,
      "tact": 6160,
      "visual": 6161,
      "shooting": 6162,
      "rence": 6163,
      "Grant": 6164,
      "Sus": 6165,
      "regions": 6166,
      "1965": 6167,
      "strip": 6168,
      "motor": 6169,
      "Railway": 6170,
      "trail": 6171,
      "NHL": 6172,
      "Emperor": 6173,
      "Child": 6174,
      "belief": 6175,
      "hired": 6176,
      "anda": 6177,
      "advis": 6178,
      "opportunity": 6179,
      "satis": 6180,
      "receiving": 6181,
      "onom": 6182,
      "rear": 6183,
      "substant": 6184,
      "1975": 6185,
      "recognized": 6186,
      "display": 6187,
      "correspond": 6188,
      "emb": 6189,
      "conference": 6190,
      "Es": 6191,
      "uct": 6192,
      "rupt": 6193,
      "kee": 6194,
      "Blo": 6195,
      "knot": 6196,
      "notable": 6197,
      "calls": 6198,
      "strengthen": 6199,
      "trains": 6200,
      "Jr": 6201,
      "Ep": 6202,
      "possess": 6203,
      "Ka": 6204,
      "Germans": 6205,
      "composition": 6206,
      "Gro": 6207,
      "providing": 6208,
      "alternative": 6209,
      "ours": 6210,
      "iance": 6211,
      "Hollywood": 6212,
      "Mod": 6213,
      "lb": 6214,
      "resident": 6215,
      "Davis": 6216,
      "Only": 6217,
      "1974": 6218,
      "liber": 6219,
      "charts": 6220,
      "ween": 6221,
      "merch": 6222,
      "Summer": 6223,
      "Cur": 6224,
      "59": 6225,
      "57": 6226,
      "agent": 6227,
      "rapidly": 6228,
      "exter": 6229,
      "izes": 6230,
      "southwest": 6231,
      "Water": 6232,
      "achu": 6233,
      "volume": 6234,
      "Serb": 6235,
      "tank": 6236,
      "1973": 6237,
      "Bank": 6238,
      "bac": 6239,
      "Indu": 6240,
      "publication": 6241,
      "Democratic": 6242,
      "aly": 6243,
      "resc": 6244,
      "desc": 6245,
      "digital": 6246,
      "shared": 6247,
      "Ri": 6248,
      "casualties": 6249,
      "Daily": 6250,
      "highlight": 6251,
      "Between": 6252,
      "Fall": 6253,
      "constant": 6254,
      "reaction": 6255,
      "hydro": 6256,
      "label": 6257,
      "Op": 6258,
      "temperature": 6259,
      "card": 6260,
      "lake": 6261,
      "unting": 6262,
      "missing": 6263,
      "economy": 6264,
      "1976": 6265,
      "Les": 6266,
      "adding": 6267,
      "involve": 6268,
      "ogy": 6269,
      "developing": 6270,
      "Knight": 6271,
      "Rome": 6272,
      "Lady": 6273,
      "68": 6274,
      "glass": 6275,
      "Jour": 6276,
      "letters": 6277,
      "uan": 6278,
      "steel": 6279,
      "iet": 6280,
      "intersection": 6281,
      "reflect": 6282,
      "Pet": 6283,
      "secondary": 6284,
      "icial": 6285,
      "popularity": 6286,
      "oncé": 6287,
      "eleven": 6288,
      "symbol": 6289,
      "inspir": 6290,
      "ods": 6291,
      "Mount": 6292,
      "formal": 6293,
      "getting": 6294,
      "Lind": 6295,
      "Special": 6296,
      "raid": 6297,
      "injured": 6298,
      "urb": 6299,
      "ceived": 6300,
      "isol": 6301,
      "losses": 6302,
      "itled": 6303,
      "Pit": 6304,
      "partn": 6305,
      "acks": 6306,
      "march": 6307,
      "painting": 6308,
      "brand": 6309,
      "franchise": 6310,
      "trip": 6311,
      "hed": 6312,
      "witness": 6313,
      "ads": 6314,
      "portray": 6315,
      "significantly": 6316,
      "Bad": 6317,
      "Women": 6318,
      "crimin": 6319,
      "save": 6320,
      "250": 6321,
      "knew": 6322,
      "semi": 6323,
      "Muslim": 6324,
      "poll": 6325,
      "abo": 6326,
      "hot": 6327,
      "emic": 6328,
      "Arts": 6329,
      "literature": 6330,
      "Beyoncé": 6331,
      "unte": 6332,
      "actress": 6333,
      "cricket": 6334,
      "abour": 6335,
      "54": 6336,
      "Nap": 6337,
      "mast": 6338,
      "math": 6339,
      "inal": 6340,
      "UN": 6341,
      "roughly": 6342,
      "Syd": 6343,
      "fash": 6344,
      "Dor": 6345,
      "remo": 6346,
      "dram": 6347,
      "Tam": 6348,
      "shape": 6349,
      "evin": 6350,
      "distinct": 6351,
      "inger": 6352,
      "regarding": 6353,
      "53": 6354,
      "brothers": 6355,
      "scientific": 6356,
      "anything": 6357,
      "ully": 6358,
      "ux": 6359,
      "museum": 6360,
      "grapher": 6361,
      "projects": 6362,
      "Colonel": 6363,
      "arranged": 6364,
      "introduction": 6365,
      "avig": 6366,
      "gameplay": 6367,
      "resistance": 6368,
      "bishop": 6369,
      "Naz": 6370,
      "nic": 6371,
      "89": 6372,
      "án": 6373,
      "Supreme": 6374,
      "neighbor": 6375,
      "IG": 6376,
      "ulate": 6377,
      "storyline": 6378,
      "reasons": 6379,
      "rules": 6380,
      "gro": 6381,
      "MA": 6382,
      "Nick": 6383,
      "zen": 6384,
      "distingu": 6385,
      "Press": 6386,
      "cells": 6387,
      "bid": 6388,
      "Kentucky": 6389,
      "daily": 6390,
      "Dy": 6391,
      "cool": 6392,
      "1946": 6393,
      "watched": 6394,
      "cruiser": 6395,
      "1981": 6396,
      "shaped": 6397,
      "missions": 6398,
      "accur": 6399,
      "stages": 6400,
      "itors": 6401,
      "plane": 6402,
      "ients": 6403,
      "aka": 6404,
      "istry": 6405,
      "perhaps": 6406,
      "enjoyed": 6407,
      "Gord": 6408,
      "annon": 6409,
      "turning": 6410,
      "renamed": 6411,
      "capable": 6412,
      "160": 6413,
      "laws": 6414,
      "1950s": 6415,
      "Bern": 6416,
      "opinion": 6417,
      "acres": 6418,
      "declined": 6419,
      "rhy": 6420,
      "Mun": 6421,
      "Norway": 6422,
      "trou": 6423,
      "estate": 6424,
      "setts": 6425,
      "converted": 6426,
      "Prote": 6427,
      "reputation": 6428,
      "ultural": 6429,
      "1917": 6430,
      "asser": 6431,
      "publish": 6432,
      "Fair": 6433,
      "cited": 6434,
      "abilities": 6435,
      "Massachu": 6436,
      "awn": 6437,
      "Olympics": 6438,
      "poem": 6439,
      "retire": 6440,
      "stable": 6441,
      "genre": 6442,
      "BN": 6443,
      "udes": 6444,
      "87": 6445,
      "Dream": 6446,
      "Ell": 6447,
      "dates": 6448,
      "Nel": 6449,
      "agric": 6450,
      "statement": 6451,
      "ading": 6452,
      "recon": 6453,
      "replace": 6454,
      "operating": 6455,
      "existence": 6456,
      "Det": 6457,
      "Base": 6458,
      "asty": 6459,
      "Massachusetts": 6460,
      "enh": 6461,
      "producing": 6462,
      "tos": 6463,
      "buried": 6464,
      "ulpt": 6465,
      "mad": 6466,
      "exact": 6467,
      "marks": 6468,
      "combination": 6469,
      "rog": 6470,
      "depth": 6471,
      "aug": 6472,
      "knowledge": 6473,
      "increasingly": 6474,
      "scholar": 6475,
      "heim": 6476,
      "limit": 6477,
      "BS": 6478,
      "ura": 6479,
      "graded": 6480,
      "IA": 6481,
      "stadium": 6482,
      "approached": 6483,
      "zone": 6484,
      "ride": 6485,
      "Pict": 6486,
      "lease": 6487,
      "Airport": 6488,
      "Gree": 6489,
      "aer": 6490,
      "flat": 6491,
      "Tod": 6492,
      "planning": 6493,
      "responded": 6494,
      "Vide": 6495,
      "Whit": 6496,
      "Independ": 6497,
      "Run": 6498,
      "easily": 6499,
      "Ari": 6500,
      "Golden": 6501,
      "collected": 6502,
      "1948": 6503,
      "amond": 6504,
      "bling": 6505,
      "anth": 6506,
      "Elect": 6507,
      "settlement": 6508,
      "sects": 6509,
      "expect": 6510,
      "Cir": 6511,
      "equal": 6512,
      "py": 6513,
      "succeeded": 6514,
      "exerc": 6515,
      "1960": 6516,
      "About": 6517,
      "photograph": 6518,
      "models": 6519,
      "Mit": 6520,
      "safety": 6521,
      "ctors": 6522,
      "Earl": 6523,
      "humans": 6524,
      "AD": 6525,
      "Simpsons": 6526,
      "learned": 6527,
      "sustained": 6528,
      "Pass": 6529,
      "platform": 6530,
      "86": 6531,
      "promotion": 6532,
      "Der": 6533,
      "Init": 6534,
      "secure": 6535,
      "ES": 6536,
      "1978": 6537,
      "owner": 6538,
      "sie": 6539,
      "Ice": 6540,
      "Kh": 6541,
      "FC": 6542,
      "carrying": 6543,
      "indicated": 6544,
      "baseball": 6545,
      "ias": 6546,
      "breeding": 6547,
      "exchange": 6548,
      "Rac": 6549,
      "Songs": 6550,
      "showing": 6551,
      "rol": 6552,
      "Vietnam": 6553,
      "youth": 6554,
      "athan": 6555,
      "Ball": 6556,
      "iger": 6557,
      "lasted": 6558,
      "aust": 6559,
      "ignment": 6560,
      "rob": 6561,
      "Stand": 6562,
      "Hugh": 6563,
      "icks": 6564,
      "violence": 6565,
      "MTV": 6566,
      "Imperial": 6567,
      "uration": 6568,
      "72": 6569,
      "seems": 6570,
      "paint": 6571,
      "weakened": 6572,
      "700": 6573,
      "Cape": 6574,
      "cruisers": 6575,
      "entry": 6576,
      "borough": 6577,
      "agu": 6578,
      "1915": 6579,
      "designs": 6580,
      "athlet": 6581,
      "Shortly": 6582,
      "univers": 6583,
      "cold": 6584,
      "auth": 6585,
      "proceed": 6586,
      "trust": 6587,
      "Poland": 6588,
      "freeway": 6589,
      "Hart": 6590,
      "1977": 6591,
      "earliest": 6592,
      "ruled": 6593,
      "Sydney": 6594,
      "landfall": 6595,
      "Maryland": 6596,
      "Moore": 6597,
      "safe": 6598,
      "description": 6599,
      "icate": 6600,
      "retained": 6601,
      "Who": 6602,
      "applied": 6603,
      "install": 6604,
      "Form": 6605,
      "programs": 6606,
      "assistant": 6607,
      "Naval": 6608,
      "urs": 6609,
      "69": 6610,
      "Found": 6611,
      "grounds": 6612,
      "none": 6613,
      "ampions": 6614,
      "reserve": 6615,
      "inton": 6616,
      "wich": 6617,
      "playoff": 6618,
      "serves": 6619,
      "page": 6620,
      "seas": 6621,
      "resour": 6622,
      "writes": 6623,
      "coastal": 6624,
      "hits": 6625,
      "issance": 6626,
      "insula": 6627,
      "Ra": 6628,
      "1963": 6629,
      "dial": 6630,
      "domestic": 6631,
      "fix": 6632,
      "entrance": 6633,
      "CE": 6634,
      "Band": 6635,
      "ental": 6636,
      "virt": 6637,
      "neut": 6638,
      "borne": 6639,
      "battery": 6640,
      "sculpt": 6641,
      "istan": 6642,
      "exclus": 6643,
      "ii": 6644,
      "Jay": 6645,
      "iverse": 6646,
      "items": 6647,
      "stret": 6648,
      "strate": 6649,
      "candidate": 6650,
      "Hun": 6651,
      "1916": 6652,
      "delivered": 6653,
      "Spring": 6654,
      "gradually": 6655,
      "stopped": 6656,
      "politics": 6657,
      "ining": 6658,
      "onym": 6659,
      "breaking": 6660,
      "heat": 6661,
      "Prin": 6662,
      "settled": 6663,
      "distribution": 6664,
      "Edu": 6665,
      "independence": 6666,
      "elled": 6667,
      "solid": 6668,
      "details": 6669,
      "eff": 6670,
      "interested": 6671,
      "warm": 6672,
      "apped": 6673,
      "Mulder": 6674,
      "towns": 6675,
      "Confed": 6676,
      "ears": 6677,
      "asks": 6678,
      "ries": 6679,
      "affect": 6680,
      "minister": 6681,
      "cinem": 6682,
      "Matt": 6683,
      "fine": 6684,
      "supplies": 6685,
      "Vo": 6686,
      "equival": 6687,
      "parties": 6688,
      "finding": 6689,
      "Gordon": 6690,
      "engines": 6691,
      "wr": 6692,
      "Tun": 6693,
      "prisoners": 6694,
      "camera": 6695,
      "1919": 6696,
      "ifications": 6697,
      "Bir": 6698,
      "decis": 6699,
      "appeal": 6700,
      "Stadium": 6701,
      "refle": 6702,
      "aret": 6703,
      "Rhodes": 6704,
      "gall": 6705,
      "Cont": 6706,
      "campus": 6707,
      "ador": 6708,
      "1962": 6709,
      "illi": 6710,
      "Carl": 6711,
      "online": 6712,
      "extremely": 6713,
      "Fire": 6714,
      "foss": 6715,
      "Adams": 6716,
      "entitled": 6717,
      "Here": 6718,
      "Net": 6719,
      "winner": 6720,
      "zo": 6721,
      "osis": 6722,
      "lee": 6723,
      "mical": 6724,
      "copy": 6725,
      "Premi": 6726,
      "decade": 6727,
      "convin": 6728,
      "bask": 6729,
      "67": 6730,
      "lets": 6731,
      "Kim": 6732,
      "rose": 6733,
      "studied": 6734,
      "iversary": 6735,
      "Theatre": 6736,
      "investigation": 6737,
      "1938": 6738,
      "offers": 6739,
      "evening": 6740,
      "regiment": 6741,
      "poration": 6742,
      "inois": 6743,
      "inary": 6744,
      "isms": 6745,
      "cler": 6746,
      "threatened": 6747,
      "pel": 6748,
      "Space": 6749,
      "consum": 6750,
      "bought": 6751,
      "Bowl": 6752,
      "hear": 6753,
      "message": 6754,
      "adapted": 6755,
      "survived": 6756,
      "voted": 6757,
      "knots": 6758,
      "stic": 6759,
      "aine": 6760,
      "Research": 6761,
      "Prof": 6762,
      "Sul": 6763,
      "rie": 6764,
      "proposal": 6765,
      "religion": 6766,
      "Justice": 6767,
      "relations": 6768,
      "61": 6769,
      "deaths": 6770,
      "classified": 6771,
      "routes": 6772,
      "Moon": 6773,
      "revolution": 6774,
      "download": 6775,
      "Instead": 6776,
      "crown": 6777,
      "swe": 6778,
      "Constant": 6779,
      "relief": 6780,
      "males": 6781,
      "izations": 6782,
      "kingdom": 6783,
      "installed": 6784,
      "reduce": 6785,
      "iers": 6786,
      "acid": 6787,
      "Age": 6788,
      "classic": 6789,
      "bottom": 6790,
      "mine": 6791,
      "phase": 6792,
      "ophy": 6793,
      "bourne": 6794,
      "specifically": 6795,
      "yo": 6796,
      "duty": 6797,
      "cation": 6798,
      "happy": 6799,
      "fi": 6800,
      "phoon": 6801,
      "recalled": 6802,
      "orter": 6803,
      "fict": 6804,
      "portrayed": 6805,
      "implement": 6806,
      "aked": 6807,
      "ansas": 6808,
      "ishes": 6809,
      "compon": 6810,
      "USA": 6811,
      "servative": 6812,
      "controversy": 6813,
      "ighters": 6814,
      "Tony": 6815,
      "causes": 6816,
      "uzz": 6817,
      "ira": 6818,
      "meters": 6819,
      "products": 6820,
      "Sav": 6821,
      "fal": 6822,
      "references": 6823,
      "imet": 6824,
      "everything": 6825,
      "Let": 6826,
      "Beach": 6827,
      "appropri": 6828,
      "typical": 6829,
      "62": 6830,
      "1956": 6831,
      "importance": 6832,
      "faith": 6833,
      "walk": 6834,
      "shel": 6835,
      "arrested": 6836,
      "send": 6837,
      "wides": 6838,
      "thin": 6839,
      "pread": 6840,
      "Alan": 6841,
      "bringing": 6842,
      "ati": 6843,
      "overs": 6844,
      "diss": 6845,
      "Anth": 6846,
      "Singles": 6847,
      "130": 6848,
      "visible": 6849,
      "pine": 6850,
      "express": 6851,
      "NBA": 6852,
      "invited": 6853,
      "tanks": 6854,
      "wan": 6855,
      "reading": 6856,
      "1930s": 6857,
      "AR": 6858,
      "entially": 6859,
      "presents": 6860,
      "opera": 6861,
      "Loc": 6862,
      "81": 6863,
      "Director": 6864,
      "admitted": 6865,
      "corner": 6866,
      "internal": 6867,
      "nomination": 6868,
      "crossed": 6869,
      "Video": 6870,
      "ja": 6871,
      "angle": 6872,
      "aints": 6873,
      "Bos": 6874,
      "lad": 6875,
      "Pur": 6876,
      "opher": 6877,
      "tall": 6878,
      "Simon": 6879,
      "istered": 6880,
      "starts": 6881,
      "sequences": 6882,
      "Power": 6883,
      "1936": 6884,
      "Critical": 6885,
      "crop": 6886,
      "equipped": 6887,
      "fil": 6888,
      "ipated": 6889,
      "Kong": 6890,
      "Iron": 6891,
      "IGN": 6892,
      "Engine": 6893,
      "concerns": 6894,
      "Hamilton": 6895,
      "emies": 6896,
      "volcan": 6897,
      "amoun": 6898,
      "actual": 6899,
      "principal": 6900,
      "incorporated": 6901,
      "convoy": 6902,
      "Nat": 6903,
      "Maria": 6904,
      "hun": 6905,
      "recommended": 6906,
      "crime": 6907,
      "ibility": 6908,
      "ranean": 6909,
      "remainder": 6910,
      "images": 6911,
      "Ow": 6912,
      "medal": 6913,
      "Adam": 6914,
      "ordan": 6915,
      "Jane": 6916,
      "dream": 6917,
      "Your": 6918,
      "UTC": 6919,
      "journey": 6920,
      "vard": 6921,
      "Donald": 6922,
      "prot": 6923,
      "shots": 6924,
      "price": 6925,
      "17th": 6926,
      "Wild": 6927,
      "Plot": 6928,
      "assess": 6929,
      "composer": 6930,
      "Kat": 6931,
      "ration": 6932,
      "objects": 6933,
      "ester": 6934,
      "funds": 6935,
      "una": 6936,
      "1961": 6937,
      "appointment": 6938,
      "Ur": 6939,
      "consisting": 6940,
      "ni": 6941,
      "females": 6942,
      "promote": 6943,
      "hr": 6944,
      "thew": 6945,
      "considerable": 6946,
      "ches": 6947,
      "leton": 6948,
      "ilation": 6949,
      "storms": 6950,
      "milit": 6951,
      "extension": 6952,
      "looked": 6953,
      "Indones": 6954,
      "spons": 6955,
      "snow": 6956,
      "otic": 6957,
      "ima": 6958,
      "charges": 6959,
      "frag": 6960,
      "claiming": 6961,
      "posted": 6962,
      "1953": 6963,
      "rett": 6964,
      "Today": 6965,
      "oured": 6966,
      "sters": 6967,
      "Death": 6968,
      "Kennedy": 6969,
      "Gram": 6970,
      "clean": 6971,
      "generation": 6972,
      "Memorial": 6973,
      "Rand": 6974,
      "duties": 6975,
      "Rem": 6976,
      "Nether": 6977,
      "7th": 6978,
      "mort": 6979,
      "Cleve": 6980,
      "hope": 6981,
      "bra": 6982,
      "someone": 6983,
      "wed": 6984,
      "Military": 6985,
      "rural": 6986,
      "beach": 6987,
      "Indiana": 6988,
      "Sunday": 6989,
      "Norman": 6990,
      "eighth": 6991,
      "mere": 6992,
      "cycle": 6993,
      "Howard": 6994,
      "gone": 6995,
      "decades": 6996,
      "driving": 6997,
      "5th": 6998,
      "Ant": 6999,
      "Sky": 7000,
      "Transport": 7001,
      "identity": 7002,
      "Scully": 7003,
      "Norwe": 7004,
      "acre": 7005,
      "connection": 7006,
      "oe": 7007,
      "Tit": 7008,
      "Walk": 7009,
      "outer": 7010,
      "canal": 7011,
      "occurs": 7012,
      "aki": 7013,
      "challenge": 7014,
      "manner": 7015,
      "afford": 7016,
      "Leon": 7017,
      "apping": 7018,
      "Harr": 7019,
      "ulture": 7020,
      "casting": 7021,
      "permanent": 7022,
      "answ": 7023,
      "Arsen": 7024,
      "perior": 7025,
      "brigade": 7026,
      "AAF": 7027,
      "aspects": 7028,
      "inher": 7029,
      "freedom": 7030,
      "ader": 7031,
      "Plan": 7032,
      "Hitler": 7033,
      "onia": 7034,
      "mole": 7035,
      "fashion": 7036,
      "1947": 7037,
      "entering": 7038,
      "thesis": 7039,
      "liked": 7040,
      "1958": 7041,
      "concerned": 7042,
      "classes": 7043,
      "willing": 7044,
      "tunnel": 7045,
      "Five": 7046,
      "1937": 7047,
      "ician": 7048,
      "noting": 7049,
      "attached": 7050,
      "rend": 7051,
      "110": 7052,
      "glas": 7053,
      "divisions": 7054,
      "Sl": 7055,
      "restaur": 7056,
      "hotel": 7057,
      "Brist": 7058,
      "Ross": 7059,
      "supporters": 7060,
      "Ryan": 7061,
      "ora": 7062,
      "slowly": 7063,
      "scar": 7064,
      "74": 7065,
      "dub": 7066,
      "cens": 7067,
      "lling": 7068,
      "san": 7069,
      "1910": 7070,
      "prised": 7071,
      "WWE": 7072,
      "itage": 7073,
      "Vill": 7074,
      "seeing": 7075,
      "involving": 7076,
      "nie": 7077,
      "describing": 7078,
      "enemies": 7079,
      "1957": 7080,
      "Bry": 7081,
      "Wars": 7082,
      "owners": 7083,
      "valu": 7084,
      "Project": 7085,
      "department": 7086,
      "oldest": 7087,
      "Science": 7088,
      "vessels": 7089,
      "Gun": 7090,
      "intention": 7091,
      "purchase": 7092,
      "equivalent": 7093,
      "resent": 7094,
      "til": 7095,
      "Assembly": 7096,
      "antly": 7097,
      "parliament": 7098,
      "debate": 7099,
      "junction": 7100,
      "obtained": 7101,
      "Jac": 7102,
      "iques": 7103,
      "agonist": 7104,
      "Pear": 7105,
      "theatre": 7106,
      "possibility": 7107,
      "regularly": 7108,
      "Magazine": 7109,
      "sessions": 7110,
      "mud": 7111,
      "basic": 7112,
      "63": 7113,
      "Rolling": 7114,
      "grave": 7115,
      "Cleveland": 7116,
      "iley": 7117,
      "convent": 7118,
      "agues": 7119,
      "brain": 7120,
      "pup": 7121,
      "icit": 7122,
      "populations": 7123,
      "Turk": 7124,
      "ici": 7125,
      "prede": 7126,
      "departure": 7127,
      "Jordan": 7128,
      "widespread": 7129,
      "erald": 7130,
      "recognition": 7131,
      "Hou": 7132,
      "income": 7133,
      "decline": 7134,
      "certified": 7135,
      "scious": 7136,
      "clip": 7137,
      "Pa": 7138,
      "Illinois": 7139,
      "committed": 7140,
      "constitut": 7141,
      "decor": 7142,
      "armor": 7143,
      "acknow": 7144,
      "Throughout": 7145,
      "accused": 7146,
      "Pot": 7147,
      "ynasty": 7148,
      "Douglas": 7149,
      "deleg": 7150,
      "nut": 7151,
      "Isa": 7152,
      "sequel": 7153,
      "Weekly": 7154,
      "derived": 7155,
      "check": 7156,
      "Master": 7157,
      "assumed": 7158,
      "regon": 7159,
      "Media": 7160,
      "Andy": 7161,
      "Pier": 7162,
      "frame": 7163,
      "wearing": 7164,
      "skin": 7165,
      "sam": 7166,
      "citizens": 7167,
      "Card": 7168,
      "agn": 7169,
      "survey": 7170,
      "1959": 7171,
      "Oregon": 7172,
      "Stanley": 7173,
      "iro": 7174,
      "Arsenal": 7175,
      "iven": 7176,
      "segment": 7177,
      "icide": 7178,
      "hosted": 7179,
      "Third": 7180,
      "returns": 7181,
      "valley": 7182,
      "torn": 7183,
      "intelligence": 7184,
      "stands": 7185,
      "DE": 7186,
      "historic": 7187,
      "lose": 7188,
      "denied": 7189,
      "animated": 7190,
      "Recording": 7191,
      "Freder": 7192,
      "Roger": 7193,
      "Cre": 7194,
      "Cas": 7195,
      "Ku": 7196,
      "regional": 7197,
      "Bruce": 7198,
      "iterranean": 7199,
      "parallel": 7200,
      "temple": 7201,
      "Beatles": 7202,
      "Key": 7203,
      "akers": 7204,
      "literary": 7205,
      "Family": 7206,
      "Kevin": 7207,
      "terminus": 7208,
      "Mexican": 7209,
      "1954": 7210,
      "thousands": 7211,
      "Norwegian": 7212,
      "inity": 7213,
      "guil": 7214,
      "altern": 7215,
      "6th": 7216,
      "transition": 7217,
      "1955": 7218,
      "circum": 7219,
      "Mediterranean": 7220,
      "interpret": 7221,
      "supposed": 7222,
      "pled": 7223,
      "graphics": 7224,
      "uni": 7225,
      "wickets": 7226,
      "Bristol": 7227,
      "gets": 7228,
      "Treat": 7229,
      "esh": 7230,
      "Gra": 7231,
      "mosphere": 7232,
      "Alf": 7233,
      "plate": 7234,
      "ione": 7235,
      "Allen": 7236,
      "intr": 7237,
      "fruit": 7238,
      "thedr": 7239,
      "ISBN": 7240,
      "noon": 7241,
      "raise": 7242,
      "proto": 7243,
      "strongly": 7244,
      "aboard": 7245,
      "eman": 7246,
      "Girl": 7247,
      "Ira": 7248,
      "behavior": 7249,
      "circulation": 7250,
      "sailed": 7251,
      "link": 7252,
      "Rain": 7253,
      "16th": 7254,
      "passengers": 7255,
      "Morgan": 7256,
      "convict": 7257,
      "impl": 7258,
      "clubs": 7259,
      "fictional": 7260,
      "thetic": 7261,
      "mates": 7262,
      "prey": 7263,
      "Federal": 7264,
      "emerged": 7265,
      "thirty": 7266,
      "races": 7267,
      "trait": 7268,
      "gers": 7269,
      "conscious": 7270,
      "aced": 7271,
      "tied": 7272,
      "ML": 7273,
      "ologist": 7274,
      "Glo": 7275,
      "commanded": 7276,
      "Bush": 7277,
      "Channel": 7278,
      "establishment": 7279,
      "tex": 7280,
      "Now": 7281,
      "shr": 7282,
      "aran": 7283,
      "neck": 7284,
      "Ali": 7285,
      "address": 7286,
      "magn": 7287,
      "replacement": 7288,
      "begun": 7289,
      "ocked": 7290,
      "costs": 7291,
      "norm": 7292,
      "downtown": 7293,
      "uous": 7294,
      "exception": 7295,
      "operate": 7296,
      "assistance": 7297,
      "conduct": 7298,
      "destruction": 7299,
      "moves": 7300,
      "vary": 7301,
      "instru": 7302,
      "generated": 7303,
      "telling": 7304,
      "emed": 7305,
      "Tenn": 7306,
      "migr": 7307,
      "feeling": 7308,
      "orient": 7309,
      "82": 7310,
      "apart": 7311,
      "atinum": 7312,
      "71": 7313,
      "attributed": 7314,
      "cou": 7315,
      "speaking": 7316,
      "sud": 7317,
      "task": 7318,
      "Forest": 7319,
      "kid": 7320,
      "Within": 7321,
      "Ut": 7322,
      "Korea": 7323,
      "13th": 7324,
      "demol": 7325,
      "finishing": 7326,
      "appearing": 7327,
      "opposite": 7328,
      "stayed": 7329,
      "anned": 7330,
      "driven": 7331,
      "orb": 7332,
      "sight": 7333,
      "Additionally": 7334,
      "Lisa": 7335,
      "unusual": 7336,
      "alleged": 7337,
      "Fame": 7338,
      "Argent": 7339,
      "properties": 7340,
      "dict": 7341,
      "joining": 7342,
      "recovered": 7343,
      "grass": 7344,
      "Dig": 7345,
      "volunte": 7346,
      "Kin": 7347,
      "atmosphere": 7348,
      "1952": 7349,
      "dipl": 7350,
      "cow": 7351,
      "73": 7352,
      "Row": 7353,
      "strateg": 7354,
      "abol": 7355,
      "shif": 7356,
      "occasionally": 7357,
      "Low": 7358,
      "institut": 7359,
      "Color": 7360,
      "chorus": 7361,
      "Confeder": 7362,
      "fighter": 7363,
      "Profess": 7364,
      "EC": 7365,
      "fled": 7366,
      "garrison": 7367,
      "Murray": 7368,
      "Robinson": 7369,
      "Ok": 7370,
      "responsibility": 7371,
      "abled": 7372,
      "effectively": 7373,
      "cavalry": 7374,
      "sounds": 7375,
      "Nich": 7376,
      "completion": 7377,
      "astron": 7378,
      "Prior": 7379,
      "Lenn": 7380,
      "Anne": 7381,
      "Morris": 7382,
      "methods": 7383,
      "atus": 7384,
      "dang": 7385,
      "Ever": 7386,
      "1933": 7387,
      "swim": 7388,
      "Somer": 7389,
      "Similar": 7390,
      "Television": 7391,
      "scrap": 7392,
      "alco": 7393,
      "Around": 7394,
      "Hawai": 7395,
      "84": 7396,
      "Unlike": 7397,
      "materials": 7398,
      "fitted": 7399,
      "Construction": 7400,
      "warning": 7401,
      "demo": 7402,
      "opt": 7403,
      "persu": 7404,
      "ingly": 7405,
      "iller": 7406,
      "girls": 7407,
      "province": 7408,
      "Lyn": 7409,
      "accom": 7410,
      "ords": 7411,
      "classical": 7412,
      "Anton": 7413,
      "surviving": 7414,
      "attracted": 7415,
      "technical": 7416,
      "doub": 7417,
      "global": 7418,
      "column": 7419,
      "erup": 7420,
      "Nelson": 7421,
      "climate": 7422,
      "fear": 7423,
      "poly": 7424,
      "classification": 7425,
      "differences": 7426,
      "quant": 7427,
      "Sweden": 7428,
      "Fish": 7429,
      "Finn": 7430,
      "reform": 7431,
      "sid": 7432,
      "inde": 7433,
      "1935": 7434,
      "Bi": 7435,
      "pure": 7436,
      "rus": 7437,
      "keeping": 7438,
      "Anim": 7439,
      "Patrick": 7440,
      "alph": 7441,
      "select": 7442,
      "association": 7443,
      "Winter": 7444,
      "boys": 7445,
      "passage": 7446,
      "Premier": 7447,
      "mobile": 7448,
      "tie": 7449,
      "uit": 7450,
      "sequently": 7451,
      "bels": 7452,
      "reality": 7453,
      "ratings": 7454,
      "ensure": 7455,
      "neither": 7456,
      "enses": 7457,
      "Fron": 7458,
      "count": 7459,
      "massive": 7460,
      "credit": 7461,
      "Toronto": 7462,
      "code": 7463,
      "concer": 7464,
      "poses": 7465,
      "aza": 7466,
      "reinforce": 7467,
      "1951": 7468,
      "painted": 7469,
      "1949": 7470,
      "Welsh": 7471,
      "Journal": 7472,
      "separated": 7473,
      "Temple": 7474,
      "thy": 7475,
      "desire": 7476,
      "FI": 7477,
      "Mas": 7478,
      "controversi": 7479,
      "outbreak": 7480,
      "weigh": 7481,
      "vehicle": 7482,
      "Nations": 7483,
      "fur": 7484,
      "votes": 7485,
      "seemed": 7486,
      "Byzantine": 7487,
      "Pi": 7488,
      "infe": 7489,
      "oslav": 7490,
      "predecess": 7491,
      "shar": 7492,
      "PS": 7493,
      "picture": 7494,
      "Web": 7495,
      "battleships": 7496,
      "cel": 7497,
      "memory": 7498,
      "tip": 7499,
      "hoped": 7500,
      "requested": 7501,
      "revi": 7502,
      "restored": 7503,
      "movements": 7504,
      "loyd": 7505,
      "soul": 7506,
      "carbon": 7507,
      "historians": 7508,
      "Gill": 7509,
      "Netherlands": 7510,
      "Ak": 7511,
      "Matthew": 7512,
      "basketball": 7513,
      "Chron": 7514,
      "funding": 7515,
      "Every": 7516,
      "scape": 7517,
      "difficulty": 7518,
      "Jam": 7519,
      "cript": 7520,
      "agle": 7521,
      "pir": 7522,
      "convinced": 7523,
      "communities": 7524,
      "fee": 7525,
      "Az": 7526,
      "remember": 7527,
      "uty": 7528,
      "Ford": 7529,
      "Dean": 7530,
      "CR": 7531,
      "thedral": 7532,
      "cos": 7533,
      "programme": 7534,
      "Dri": 7535,
      "ala": 7536,
      "Jews": 7537,
      "map": 7538,
      "premiere": 7539,
      "MI": 7540,
      "delayed": 7541,
      "praise": 7542,
      "Dog": 7543,
      "Open": 7544,
      "dating": 7545,
      "weapon": 7546,
      "discovery": 7547,
      "cloud": 7548,
      "batting": 7549,
      "inspiration": 7550,
      "otherwise": 7551,
      "solution": 7552,
      "greatly": 7553,
      "anniversary": 7554,
      "consult": 7555,
      "Design": 7556,
      "injuries": 7557,
      "anny": 7558,
      "leads": 7559,
      "assem": 7560,
      "ucks": 7561,
      "Again": 7562,
      "boil": 7563,
      "accounts": 7564,
      "Story": 7565,
      "Hero": 7566,
      "spoke": 7567,
      "94": 7568,
      "surrounded": 7569,
      "moral": 7570,
      "penalty": 7571,
      "98": 7572,
      "needs": 7573,
      "Techn": 7574,
      "1900": 7575,
      "bear": 7576,
      "Iraq": 7577,
      "partner": 7578,
      "pattern": 7579,
      "cock": 7580,
      "Russell": 7581,
      "Heart": 7582,
      "oked": 7583,
      "Thomp": 7584,
      "Ey": 7585,
      "ureau": 7586,
      "Bou": 7587,
      "Puer": 7588,
      "Sports": 7589,
      "ige": 7590,
      "Marine": 7591,
      "Sax": 7592,
      "strategy": 7593,
      "Av": 7594,
      "throne": 7595,
      "comparison": 7596,
      "Bishop": 7597,
      "DNA": 7598,
      "Tal": 7599,
      "Oak": 7600,
      "elev": 7601,
      "agree": 7602,
      "vive": 7603,
      "sees": 7604,
      "wrong": 7605,
      "Domin": 7606,
      "Lau": 7607,
      "documentary": 7608,
      "musicians": 7609,
      "architecture": 7610,
      "accompl": 7611,
      "crosses": 7612,
      "learn": 7613,
      "rates": 7614,
      "worst": 7615,
      "umin": 7616,
      "12th": 7617,
      "Pow": 7618,
      "ography": 7619,
      "termine": 7620,
      "Croatian": 7621,
      "Hop": 7622,
      "vince": 7623,
      "Thompson": 7624,
      "category": 7625,
      "rip": 7626,
      "formally": 7627,
      "Bah": 7628,
      "elling": 7629,
      "determine": 7630,
      "involvement": 7631,
      "chairman": 7632,
      "dismissed": 7633,
      "Armen": 7634,
      "NFL": 7635,
      "micro": 7636,
      "Centre": 7637,
      "sale": 7638,
      "ios": 7639,
      "cement": 7640,
      "adaptation": 7641,
      "Last": 7642,
      "MC": 7643,
      "remn": 7644,
      "Carter": 7645,
      "intense": 7646,
      "gross": 7647,
      "infl": 7648,
      "trained": 7649,
      "falling": 7650,
      "Kelly": 7651,
      "quir": 7652,
      "Dick": 7653,
      "Islam": 7654,
      "Puerto": 7655,
      "Shar": 7656,
      "ua": 7657,
      "somewhat": 7658,
      "resources": 7659,
      "Holy": 7660,
      "Brun": 7661,
      "Free": 7662,
      "NBC": 7663,
      "interests": 7664,
      "scheme": 7665,
      "forcing": 7666,
      "colonial": 7667,
      "MP": 7668,
      "medieval": 7669,
      "immediate": 7670,
      "library": 7671,
      "adults": 7672,
      "bond": 7673,
      "presidential": 7674,
      "rhyth": 7675,
      "oty": 7676,
      "pregn": 7677,
      "vul": 7678,
      "sized": 7679,
      "ardian": 7680,
      "tack": 7681,
      "legs": 7682,
      "alien": 7683,
      "Along": 7684,
      "fighters": 7685,
      "techniques": 7686,
      "invent": 7687,
      "lins": 7688,
      "ninth": 7689,
      "profit": 7690,
      "mont": 7691,
      "Niel": 7692,
      "themat": 7693,
      "starred": 7694,
      "academic": 7695,
      "elections": 7696,
      "Bed": 7697,
      "faces": 7698,
      "theat": 7699,
      "9th": 7700,
      "difference": 7701,
      "audio": 7702,
      "frequent": 7703,
      "stro": 7704,
      "modified": 7705,
      "commem": 7706,
      "passenger": 7707,
      "streets": 7708,
      "Hungarian": 7709,
      "Labor": 7710,
      "fold": 7711,
      "falls": 7712,
      "meets": 7713,
      "Hend": 7714,
      "oles": 7715,
      "BI": 7716,
      "1913": 7717,
      "pound": 7718,
      "ugu": 7719,
      "buy": 7720,
      "attacking": 7721,
      "electron": 7722,
      "bron": 7723,
      "reviewer": 7724,
      "Wright": 7725,
      "submarine": 7726,
      "premiered": 7727,
      "83": 7728,
      "bean": 7729,
      "Constitution": 7730,
      "absence": 7731,
      "Thus": 7732,
      "stan": 7733,
      "phr": 7734,
      "observ": 7735,
      "Batman": 7736,
      "controversial": 7737,
      "superior": 7738,
      "margin": 7739,
      "measures": 7740,
      "ava": 7741,
      "favorite": 7742,
      "interior": 7743,
      "engineer": 7744,
      "arrangement": 7745,
      "Parker": 7746,
      "Modern": 7747,
      "porter": 7748,
      "impressed": 7749,
      "Cra": 7750,
      "Hell": 7751,
      "airport": 7752,
      "Build": 7753,
      "deemed": 7754,
      "firing": 7755,
      "Harris": 7756,
      "romantic": 7757,
      "Steven": 7758,
      "Ban": 7759,
      "Pak": 7760,
      "1926": 7761,
      "shut": 7762,
      "landed": 7763,
      "conclusion": 7764,
      "Ath": 7765,
      "renew": 7766,
      "oman": 7767,
      "Bang": 7768,
      "characteristics": 7769,
      "belt": 7770,
      "Benn": 7771,
      "Eric": 7772,
      "facility": 7773,
      "encouraged": 7774,
      "1927": 7775,
      "Berlin": 7776,
      "enters": 7777,
      "unch": 7778,
      "giant": 7779,
      "afterwards": 7780,
      "retirement": 7781,
      "continuing": 7782,
      "Library": 7783,
      "munic": 7784,
      "colony": 7785,
      "talk": 7786,
      "temperatures": 7787,
      "wins": 7788,
      "myster": 7789,
      "convection": 7790,
      "everyone": 7791,
      "biography": 7792,
      "Seven": 7793,
      "1921": 7794,
      "informed": 7795,
      "crete": 7796,
      "suffering": 7797,
      "eggs": 7798,
      "secured": 7799,
      "infr": 7800,
      "legislation": 7801,
      "cha": 7802,
      "1934": 7803,
      "Minn": 7804,
      "ameter": 7805,
      "vac": 7806,
      "cloth": 7807,
      "Education": 7808,
      "horn": 7809,
      "toms": 7810,
      "tenance": 7811,
      "owed": 7812,
      "rome": 7813,
      "styles": 7814,
      "itzer": 7815,
      "wings": 7816,
      "Front": 7817,
      "believes": 7818,
      "distributed": 7819,
      "ipl": 7820,
      "cris": 7821,
      "ceased": 7822,
      "Late": 7823,
      "aux": 7824,
      "attempting": 7825,
      "Houston": 7826,
      "authors": 7827,
      "Police": 7828,
      "Beck": 7829,
      "defended": 7830,
      "iate": 7831,
      "pointed": 7832,
      "standards": 7833,
      "Commander": 7834,
      "rescue": 7835,
      "Cop": 7836,
      "ool": 7837,
      "archae": 7838,
      "ixon": 7839,
      "roit": 7840,
      "Palace": 7841,
      "Dist": 7842,
      "cancer": 7843,
      "facing": 7844,
      "judge": 7845,
      "habitat": 7846,
      "depicted": 7847,
      "apse": 7848,
      "monarch": 7849,
      "curren": 7850,
      "dominated": 7851,
      "900": 7852,
      "1912": 7853,
      "huge": 7854,
      "agas": 7855,
      "anyone": 7856,
      "carrier": 7857,
      "longest": 7858,
      "Wy": 7859,
      "Silver": 7860,
      "Santa": 7861,
      "Var": 7862,
      "acknowled": 7863,
      "asure": 7864,
      "biggest": 7865,
      "Swedish": 7866,
      "ware": 7867,
      "unsuccessful": 7868,
      "representing": 7869,
      "Commonwealth": 7870,
      "dress": 7871,
      "empt": 7872,
      "graphical": 7873,
      "Samuel": 7874,
      "Hospital": 7875,
      "Jacob": 7876,
      "stal": 7877,
      "merged": 7878,
      "Sab": 7879,
      "Vis": 7880,
      "finals": 7881,
      "Bri": 7882,
      "stances": 7883,
      "Simpson": 7884,
      "sudden": 7885,
      "Tok": 7886,
      "Cry": 7887,
      "remix": 7888,
      "ultane": 7889,
      "teor": 7890,
      "Reser": 7891,
      "abinet": 7892,
      "1932": 7893,
      "Yug": 7894,
      "Wis": 7895,
      "toll": 7896,
      "Track": 7897,
      "immigr": 7898,
      "Indians": 7899,
      "Offic": 7900,
      "layer": 7901,
      "comfort": 7902,
      "changing": 7903,
      "RAAF": 7904,
      "Yan": 7905,
      "harmon": 7906,
      "ners": 7907,
      "dimen": 7908,
      "pin": 7909,
      "veter": 7910,
      "releases": 7911,
      "ón": 7912,
      "aire": 7913,
      "convention": 7914,
      "140": 7915,
      "Corporation": 7916,
      "Mot": 7917,
      "uding": 7918,
      "91": 7919,
      "Cru": 7920,
      "Warner": 7921,
      "bridges": 7922,
      "Gard": 7923,
      "adj": 7924,
      "formerly": 7925,
      "beautiful": 7926,
      "93": 7927,
      "Yugoslav": 7928,
      "Jason": 7929,
      "Anthony": 7930,
      "TA": 7931,
      "retreat": 7932,
      "vy": 7933,
      "closer": 7934,
      "deployed": 7935,
      "comed": 7936,
      "moderate": 7937,
      "emergency": 7938,
      "97": 7939,
      "emotional": 7940,
      "Work": 7941,
      "intent": 7942,
      "hypo": 7943,
      "siege": 7944,
      "Raj": 7945,
      "oke": 7946,
      "AI": 7947,
      "questions": 7948,
      "journalist": 7949,
      "Social": 7950,
      "trials": 7951,
      "Wing": 7952,
      "festival": 7953,
      "narrative": 7954,
      "gay": 7955,
      "influential": 7956,
      "RAF": 7957,
      "bone": 7958,
      "Author": 7959,
      "Croatia": 7960,
      "satisf": 7961,
      "Rap": 7962,
      "thel": 7963,
      "Detroit": 7964,
      "Lam": 7965,
      "hunting": 7966,
      "oxy": 7967,
      "mart": 7968,
      "successor": 7969,
      "treated": 7970,
      "novels": 7971,
      "eless": 7972,
      "factory": 7973,
      "encies": 7974,
      "bright": 7975,
      "util": 7976,
      "influences": 7977,
      "Athen": 7978,
      "Gaga": 7979,
      "ugg": 7980,
      "eing": 7981,
      "acent": 7982,
      "1929": 7983,
      "aska": 7984,
      "courts": 7985,
      "suitable": 7986,
      "squad": 7987,
      "printed": 7988,
      "1911": 7989,
      "Anna": 7990,
      "Get": 7991,
      "hanna": 7992,
      "childhood": 7993,
      "assass": 7994,
      "experiences": 7995,
      "excess": 7996,
      "tes": 7997,
      "Chamber": 7998,
      "discussed": 7999,
      "Network": 8000,
      "sor": 8001,
      "170": 8002,
      "handed": 8003,
      "apparently": 8004,
      "Tar": 8005,
      "alcohol": 8006,
      "ocean": 8007,
      "Belg": 8008,
      "Dom": 8009,
      "coins": 8010,
      "instruments": 8011,
      "stab": 8012,
      "hys": 8013,
      "executed": 8014,
      "victims": 8015,
      "watching": 8016,
      "Spears": 8017,
      "graduate": 8018,
      "environmental": 8019,
      "aser": 8020,
      "approval": 8021,
      "diplom": 8022,
      "veget": 8023,
      "irt": 8024,
      "Princess": 8025,
      "Asian": 8026,
      "detail": 8027,
      "insur": 8028,
      "VI": 8029,
      "Staff": 8030,
      "tone": 8031,
      "1931": 8032,
      "flash": 8033,
      "1922": 8034,
      "offices": 8035,
      "factors": 8036,
      "Wol": 8037,
      "inhabit": 8038,
      "coin": 8039,
      "Jesus": 8040,
      "Arn": 8041,
      "loan": 8042,
      "channel": 8043,
      "depos": 8044,
      "Mort": 8045,
      "Nic": 8046,
      "Wat": 8047,
      "Xbox": 8048,
      "tern": 8049,
      "wooden": 8050,
      "Melbourne": 8051,
      "iat": 8052,
      "arked": 8053,
      "15th": 8054,
      "normally": 8055,
      "Nielsen": 8056,
      "Ag": 8057,
      "DC": 8058,
      "Pope": 8059,
      "Win": 8060,
      "igins": 8061,
      "existed": 8062,
      "achment": 8063,
      "skills": 8064,
      "hearing": 8065,
      "Cooper": 8066,
      "Evans": 8067,
      "Clinton": 8068,
      "banks": 8069,
      "Horse": 8070,
      "hundreds": 8071,
      "Ren": 8072,
      "navig": 8073,
      "eller": 8074,
      "reck": 8075,
      "resigned": 8076,
      "Vice": 8077,
      "chain": 8078,
      "exposed": 8079,
      "Ian": 8080,
      "format": 8081,
      "CO": 8082,
      "plus": 8083,
      "Tower": 8084,
      "reveals": 8085,
      "tran": 8086,
      "flew": 8087,
      "spin": 8088,
      "Nevertheless": 8089,
      "chapter": 8090,
      "Da": 8091,
      "Hud": 8092,
      "owa": 8093,
      "Category": 8094,
      "jum": 8095,
      "oli": 8096,
      "disput": 8097,
      "memor": 8098,
      "memorial": 8099,
      "enthus": 8100,
      "understand": 8101,
      "substantial": 8102,
      "relationships": 8103,
      "prevented": 8104,
      "wet": 8105,
      "locom": 8106,
      "testing": 8107,
      "Guy": 8108,
      "drums": 8109,
      "jur": 8110,
      "listing": 8111,
      "Son": 8112,
      "Stewart": 8113,
      "Ol": 8114,
      "preferred": 8115,
      "genetic": 8116,
      "linked": 8117,
      "animation": 8118,
      "eat": 8119,
      "lik": 8120,
      "Thor": 8121,
      "pushed": 8122,
      "chell": 8123,
      "tests": 8124,
      "92": 8125,
      "pete": 8126,
      "Heavy": 8127,
      "chemical": 8128,
      "skill": 8129,
      "footage": 8130,
      "languages": 8131,
      "happened": 8132,
      "opponents": 8133,
      "thereafter": 8134,
      "reportedly": 8135,
      "hatt": 8136,
      "resign": 8137,
      "correct": 8138,
      "Mars": 8139,
      "seek": 8140,
      "iliar": 8141,
      "politan": 8142,
      "thousand": 8143,
      "Cel": 8144,
      "stance": 8145,
      "imens": 8146,
      "alo": 8147,
      "Turkish": 8148,
      "device": 8149,
      "liqu": 8150,
      "notably": 8151,
      "grav": 8152,
      "Alb": 8153,
      "wheel": 8154,
      "Bulgar": 8155,
      "TO": 8156,
      "Lennon": 8157,
      "driver": 8158,
      "visitors": 8159,
      "Lane": 8160,
      "guide": 8161,
      "Stock": 8162,
      "agents": 8163,
      "Sarah": 8164,
      "deter": 8165,
      "icians": 8166,
      "Real": 8167,
      "employees": 8168,
      "Baltim": 8169,
      "Gib": 8170,
      "arring": 8171,
      "Greece": 8172,
      "Austria": 8173,
      "Baltimore": 8174,
      "calcul": 8175,
      "Gam": 8176,
      "grown": 8177,
      "accompany": 8178,
      "factor": 8179,
      "extin": 8180,
      "Express": 8181,
      "Queens": 8182,
      "Albums": 8183,
      "commemor": 8184,
      "lists": 8185,
      "Dur": 8186,
      "interpre": 8187,
      "departed": 8188,
      "participate": 8189,
      "helm": 8190,
      "Carib": 8191
    },
    "merges": [
      "t h",
      "i n",
      "e r",
      "a n",
      "th e",
      "o n",
      "e d",
      "r e",
      "a t",
      "e n",
      "o r",
      "a l",
      "s t",
      "a r",
      "an d",
      "a s",
      "o f",
      "in g",
      "e s",
      "t o",
      "i s",
      "i t",
      "o u",
      "i c",
      "i on",
      "l e",
      "h e",
      "r o",
      "i l",
      "a c",
      "en t",
      "a d",
      "s e",
      "u n",
      "a m",
      "o m",
      "b e",
      "l y",
      "w as",
      "f or",
      "c h",
      "v e",
      "d e",
      "u r",
      "o l",
      "i r",
      "T he",
      "i m",
      "- @",
      "@ -@",
      "i g",
      "v er",
      "t er",
      "w h",
      "o w",
      "i th",
      "c e",
      "a y",
      "c on",
      "i d",
      "at ion",
      "c t",
      "w ith",
      "th at",
      "a g",
      "t e",
      "b y",
      "u s",
      "o t",
      "er e",
      "e l",
      "r i",
      "u l",
      "a p",
      "u t",
      "1 9",
      "e t",
      "re s",
      "a in",
      "er s",
      "o p",
      "p l",
      "c om",
      "h is",
      "ro m",
      "u m",
      "al l",
      "0 0",
      "ou n",
      "a b",
      "un k",
      "m o",
      "i st",
      "s u",
      "n e",
      "p ro",
      "s h",
      "f rom",
      "p e",
      "I n",
      "c l",
      "at e",
      "a re",
      "ar t",
      "l i",
      "t r",
      "th er",
      "ig h",
      "o s",
      "d i",
      "e m",
      "e x",
      "b er",
      "e st",
      "ic h",
      "w ere",
      "l d",
      "ar d",
      "il l",
      "o c",
      "a k",
      "a st",
      "i es",
      "an t",
      "on g",
      "p er",
      "q u",
      "g h",
      "m ent",
      "at ed",
      "i ve",
      "ou t",
      "m an",
      "am e",
      "it y",
      "f e",
      "es s",
      "ou r",
      "h ad",
      "o d",
      "en d",
      "is h",
      "ac k",
      "or t",
      "on e",
      "al s",
      "e ar",
      "a v",
      "o ver",
      "g e",
      "t w",
      "a f",
      "wh ich",
      "i p",
      "ou gh",
      "oun d",
      "b ut",
      "n ot",
      "v i",
      "ac t",
      "g r",
      "as s",
      "or d",
      "al ly",
      "a ve",
      "st r",
      "igh t",
      "in e",
      "h er",
      "ar y",
      "r it",
      "it s",
      "d u",
      "i v",
      "u d",
      "p r",
      "e p",
      "i an",
      "i f",
      "S t",
      "C h",
      "o re",
      "2 0",
      "f ir",
      "2 00",
      "u p",
      "e w",
      "ou ld",
      "i a",
      "ou s",
      "ow n",
      "d er",
      "a u",
      "b o",
      "b l",
      "a w",
      "ct ion",
      "w or",
      "com p",
      "e v",
      "ac h",
      "ag e",
      "k e",
      "at t",
      "fir st",
      "l and",
      "p ort",
      "ig n",
      "it ion",
      "for m",
      "the ir",
      "s i",
      "ic al",
      "l ow",
      "s c",
      "l o",
      "i al",
      "s er",
      "t im",
      "at er",
      "p o",
      "l l",
      "als o",
      "H e",
      "wh o",
      "b r",
      "p art",
      "in t",
      "u re",
      "1 8",
      "h as",
      "o ther",
      "re c",
      "h ave",
      "pl ay",
      "om e",
      "an s",
      "p t",
      "u st",
      "con t",
      "of f",
      "re e",
      "o k",
      ". @",
      "@ .@",
      "tw o",
      "i le",
      "en ce",
      "p res",
      "ur ing",
      "be en",
      "m e",
      "ic e",
      "an ce",
      "w e",
      "m er",
      ", @",
      "@ ,@",
      "d is",
      "20 1",
      "p os",
      "T h",
      "I t",
      "th is",
      "or y",
      "y ear",
      "af ter",
      "re n",
      "p h",
      "ul t",
      "c re",
      "d es",
      "el l",
      "ac e",
      "v ed",
      "f in",
      "ar k",
      "ad e",
      "the y",
      "A n",
      "ab le",
      "m on",
      "c o",
      "s p",
      "in cl",
      "u e",
      "it e",
      "a il",
      "U n",
      "e ver",
      "wor k",
      "an g",
      "s ion",
      "a ir",
      "f f",
      "tim e",
      "in ter",
      "ur n",
      "w ould",
      "ation s",
      "sh ip",
      "p re",
      "o g",
      "c ed",
      "in to",
      "c ent",
      "h im",
      "c r",
      "i z",
      "ic k",
      "ve l",
      "s pe",
      "s he",
      "m ber",
      "ic t",
      "at es",
      "n o",
      "i e",
      "as ed",
      "mo re",
      "it ed",
      "il m",
      "m in",
      "ol d",
      "w ay",
      "t y",
      "i re",
      "mo st",
      "c es",
      "ne w",
      "am p",
      "s on",
      "f ore",
      "m ain",
      "A r",
      "be c",
      "A l",
      "r y",
      "an y",
      "t en",
      "as e",
      "re t",
      "us ed",
      "as on",
      "f l",
      "an n",
      "o od",
      "incl ud",
      "con d",
      "ct ed",
      "c ess",
      "ing s",
      "r an",
      "in d",
      "v is",
      "or s",
      "r ed",
      "wh en",
      "f ilm",
      "d ay",
      "l es",
      "t ed",
      "er ed",
      "r ough",
      "a th",
      "il d",
      "com m",
      "w ard",
      "t on",
      "c ol",
      "ak e",
      "ic an",
      "M ar",
      "A u",
      "o b",
      "b u",
      "th ough",
      "g an",
      "t s",
      "e en",
      "ion s",
      "re g",
      "s y",
      "en s",
      "W h",
      "d uring",
      "r a",
      "th an",
      "R e",
      "O n",
      "D e",
      "ag ain",
      "g ame",
      "o se",
      "s o",
      "un der",
      "b le",
      "u bl",
      "g en",
      "n or",
      "ch ar",
      "pro du",
      "19 9",
      "on ly",
      "c k",
      "ol low",
      "the m",
      "ab out",
      "ro w",
      "c an",
      "ent s",
      "wh ile",
      "N ew",
      "i de",
      "ation al",
      "s ome",
      "s ong",
      "E n",
      "re le",
      "l ater",
      "o y",
      "l ed",
      "tw een",
      "ou th",
      "be tween",
      "e le",
      "s ing",
      "th ree",
      "1 0",
      "at ing",
      "A f",
      "wh ere",
      "th rough",
      "n um",
      "r on",
      "c oun",
      "a id",
      "A s",
      "se ason",
      "ic s",
      "vi ew",
      "f ul",
      "l ar",
      "con s",
      "A mer",
      "m y",
      "t ain",
      "er n",
      "w rit",
      "str u",
      "su b",
      "i ed",
      "the n",
      "re l",
      "i ver",
      "k n",
      "00 0",
      "ul ar",
      "d r",
      "L e",
      "ter s",
      "J o",
      "se cond",
      "h igh",
      "se l",
      "m ade",
      "m ed",
      "se t",
      "C om",
      "e f",
      "am es",
      "b um",
      "rec ord",
      "f our",
      "f ollow",
      "d o",
      "spe c",
      "g o",
      "su ch",
      "l oc",
      "1 7",
      "s ur",
      "ish ed",
      "c ap",
      "ar ri",
      "en g",
      "u b",
      "be fore",
      "at ch",
      "N o",
      "b ack",
      "th ere",
      "c ur",
      "te am",
      "w ell",
      "m us",
      "1 5",
      "year s",
      "i el",
      "ap pe",
      "ch o",
      "v en",
      "m a",
      "ad d",
      "in n",
      "T his",
      "id ent",
      "su p",
      "k s",
      "p ol",
      "al bum",
      "C on",
      "if ic",
      "p ubl",
      "ro s",
      "re at",
      "ow ever",
      "il y",
      "c all",
      ". .",
      "j e",
      "f er",
      "te m",
      "N or",
      "S h",
      "g u",
      "u al",
      "at ive",
      "man y",
      "be ing",
      "po int",
      "un t",
      "ep is",
      "al e",
      "u ary",
      "ou p",
      "on d",
      "in ce",
      "o de",
      "vel op",
      "again st",
      "A t",
      "num ber",
      "ur y",
      "u se",
      "p ed",
      "si de",
      "le ad",
      "in s",
      "sh ow",
      "char ac",
      "Af ter",
      "f t",
      "se ver",
      "B e",
      "m em",
      "1 6",
      "au se",
      "w ar",
      "p ar",
      "appe ar",
      "l ong",
      "f ound",
      "re ce",
      "i ous",
      "bec ame",
      "1 2",
      "B rit",
      "as h",
      "includ ing",
      "li ke",
      "Un ited",
      "ser v",
      "i o",
      "bo th",
      "h n",
      "es e",
      "or n",
      "ser ies",
      "S e",
      "19 8",
      "fe at",
      "is e",
      "c y",
      "o st",
      "l ine",
      "c ri",
      "m i",
      "ig in",
      "19 4",
      "d id",
      "end ed",
      "S he",
      "er al",
      "de velop",
      "ro p",
      "t ri",
      "m ill",
      "cont in",
      "ment s",
      "di re",
      "le y",
      "c er",
      "it ies",
      "u res",
      "d own",
      "oc k",
      "En g",
      "su c",
      "p op",
      "3 0",
      "di ff",
      "he ad",
      "Jo hn",
      "de c",
      "ro ad",
      "r un",
      "p ass",
      "a z",
      "epis ode",
      "ir d",
      "u ch",
      "W ar",
      "s aid",
      "le g",
      "w est",
      "ou se",
      "W or",
      "c ould",
      "p or",
      "res s",
      "ers on",
      "sever al",
      "m is",
      "Amer ican",
      "kn own",
      "per i",
      "R o",
      "or igin",
      "v id",
      "v ol",
      "l in",
      "iel d",
      "19 7",
      "c he",
      "comp le",
      "ar ch",
      "re st",
      "is ed",
      "19 6",
      "1 4",
      "I I",
      "c ord",
      "F or",
      "u ally",
      "s ign",
      "sel f",
      "mus ic",
      "G r",
      "st em",
      "c ar",
      "re main",
      "ret urn",
      "b ed",
      "ce pt",
      "be gan",
      "op er",
      "des ign",
      "G er",
      "tr y",
      "B r",
      "st e",
      "t ing",
      "op le",
      "cho ol",
      "s m",
      "st ate",
      "ear ly",
      "1 3",
      "ak ing",
      "he l",
      "a h",
      "c over",
      "rele ased",
      "ne ar",
      "d ist",
      "b all",
      "iv ed",
      "des cri",
      "C ol",
      "unt il",
      "U S",
      "call ed",
      "je ct",
      "un e",
      "suc cess",
      "op en",
      "pres ent",
      "pl ac",
      "tr ans",
      "m en",
      "S c",
      "T r",
      "f am",
      "ar r",
      "h ist",
      "ros s",
      "ol og",
      "M ay",
      "k ing",
      "h y",
      "off ic",
      "g et",
      "b and",
      "i ally",
      "c rit",
      "over n",
      "g g",
      "v al",
      "gr oup",
      "g ust",
      "l ess",
      "ist s",
      "m ay",
      "al ong",
      "v ent",
      "v es",
      "m s",
      "5 0",
      "n am",
      "b ers",
      "mill ion",
      "ow er",
      "C l",
      "m il",
      "Brit ish",
      "to w",
      "j or",
      "x t",
      "v ing",
      "S ep",
      "s im",
      "b re",
      "c ast",
      "the se",
      "m et",
      "com e",
      "en n",
      "fe ct",
      "a ther",
      "r ic",
      "iz ed",
      "att ack",
      "oc i",
      "c ut",
      "te mber",
      "c le",
      "W il",
      "n ational",
      "str al",
      "S p",
      "n ow",
      "Sep tember",
      "Au gust",
      "Wor ld",
      "ur ed",
      "St ates",
      "re qu",
      "st or",
      "le t",
      "to ok",
      "b att",
      "contin u",
      "lar ge",
      "s ame",
      "pe ople",
      "J u",
      "de p",
      "charac ter",
      "o ot",
      "un d",
      "bec ause",
      "vi de",
      "C ar",
      "i b",
      "l ight",
      "v ar",
      "gr ap",
      "pos ition",
      "re ad",
      "1 1",
      "is m",
      "res ult",
      "ar ound",
      "ir ed",
      "O c",
      "st art",
      "I s",
      "k m",
      "av ing",
      "cl ass",
      "ct or",
      "we e",
      "iver s",
      "B l",
      "J an",
      "s k",
      "A d",
      "c our",
      "a im",
      "Au stral",
      "p on",
      "form ed",
      "sup port",
      "o th",
      "vis ion",
      "m ark",
      "l a",
      "bu ild",
      "c a",
      "follow ing",
      "in c",
      "nor th",
      "li fe",
      "all ow",
      "ant s",
      "si x",
      "sy stem",
      "t al",
      "H owever",
      "or k",
      "is on",
      "tr ack",
      "Oc to",
      "P l",
      "p rom",
      "cons id",
      "af t",
      "e ach",
      "rece ived",
      "ur ch",
      "Octo ber",
      "ri st",
      "w ill",
      "im e",
      "ain ed",
      "i um",
      "P r",
      "W est",
      "pl ace",
      "il ity",
      "ver y",
      "y s",
      "g overn",
      "a x",
      "s ol",
      "ther n",
      "li am",
      "f ive",
      "l ing",
      "j ust",
      "r u",
      "are a",
      "st and",
      "r ight",
      "cent ury",
      "ar s",
      "ward s",
      "ap pro",
      "The y",
      "de f",
      "part ic",
      "m atch",
      "ate ly",
      "re port",
      "c ity",
      "Nor th",
      "B y",
      "Y ork",
      "ro te",
      "p le",
      "publ ic",
      "wor ld",
      "J une",
      "cont ro",
      "bo ok",
      "g iv",
      "t le",
      "to p",
      "sm all",
      "ma jor",
      "k ed",
      "cord ing",
      "K ing",
      "j o",
      "gr ound",
      "Ju ly",
      "f ield",
      "in a",
      "No ve",
      "l ast",
      "C an",
      "Nove mber",
      "play ed",
      "or gan",
      "wh at",
      "g er",
      "t urn",
      "M an",
      "or ed",
      "at ter",
      "2 5",
      "t it",
      "e ast",
      "p erson",
      "s ince",
      "tow n",
      "sing le",
      "l ish",
      "ion al",
      "A pr",
      "se qu",
      "Mar ch",
      "Apr il",
      "re ach",
      "g un",
      "F e",
      "ap p",
      "ag ed",
      "ev en",
      "A c",
      "ar m",
      "c are",
      "u de",
      "ur al",
      "n ame",
      "p ri",
      "w on",
      "st er",
      "E u",
      "G e",
      "diff er",
      "p ower",
      "M c",
      "C o",
      "d om",
      "h al",
      "vi ous",
      "0 s",
      "i ent",
      "C oun",
      "l it",
      "b ro",
      "id ge",
      "ag ue",
      "In di",
      "fin al",
      "in ed",
      "te st",
      "le ft",
      "re f",
      "du e",
      "S outh",
      "s outh",
      "ev ent",
      "D uring",
      "ver sion",
      "g re",
      "u di",
      "s chool",
      "ag es",
      "l ist",
      "De ce",
      "ic a",
      "an k",
      "Dece mber",
      "th ird",
      "Ger man",
      "av y",
      "in cre",
      "il t",
      "w ater",
      "M e",
      "af f",
      "mon th",
      "P h",
      "E d",
      "mo ved",
      "is ion",
      "S te",
      "m uch",
      "i er",
      "ch ild",
      "an other",
      "ex pl",
      "et s",
      "nam ed",
      "Jan uary",
      "includ ed",
      "19 5",
      "b ased",
      "W e",
      "is su",
      "w rote",
      "cl aim",
      "c amp",
      "govern ment",
      "19 3",
      "ship s",
      "A ll",
      "k ill",
      "al es",
      "ian s",
      "Wh en",
      "on s",
      "ap an",
      "h ome",
      "l s",
      "ch an",
      "sh ort",
      "st ory",
      "O r",
      "P e",
      "de ath",
      "an e",
      "ber t",
      "u te",
      "ord er",
      "2 4",
      "ough t",
      "at ure",
      "J apan",
      "ent ly",
      "G u",
      "ro y",
      "n er",
      "ex t",
      "ic ally",
      "od y",
      "m ake",
      "pres s",
      "us ing",
      "tem pt",
      "fam ily",
      "re view",
      "P ro",
      "it al",
      "spec ies",
      "pe ct",
      "ut ion",
      "os s",
      "fl u",
      "h and",
      "h ouse",
      "descri bed",
      "em ent",
      "pre vious",
      "i k",
      "f act",
      "ren ch",
      ".. .",
      "ne y",
      "d am",
      "de st",
      "row n",
      "ard s",
      "for man",
      "l ate",
      "Eu ro",
      "be li",
      "th ing",
      "c as",
      "re al",
      "ur ther",
      "bu ilt",
      "gen er",
      "il ar",
      "form er",
      "if ied",
      "B o",
      "be st",
      "en e",
      "at tempt",
      "ou te",
      "plac ed",
      "t ak",
      "g ames",
      "l er",
      "m p",
      "tr act",
      "pol it",
      "n ess",
      "he ld",
      "comm and",
      "st ud",
      "col le",
      "st ill",
      "p ut",
      "et y",
      "origin al",
      "st it",
      "H is",
      "th ose",
      "ar ed",
      "add ition",
      "con stru",
      "M on",
      "gr am",
      "br uary",
      "Fe bruary",
      "for d",
      "l im",
      "au gh",
      "ne xt",
      "v o",
      "ef fect",
      "an c",
      "Ch rist",
      "Th ere",
      "f all",
      "per forman",
      "f el",
      "m id",
      "f ri",
      "g y",
      "d en",
      "P ar",
      "mem bers",
      "r ican",
      "s ent",
      "2 1",
      "ction s",
      "en ces",
      "at or",
      "N ational",
      "m ar",
      "1 00",
      "Euro pe",
      "G en",
      "ivers ity",
      "day s",
      "se e",
      "peri od",
      "ad v",
      "with in",
      "m it",
      "at s",
      "L i",
      "F rench",
      "h am",
      "2 2",
      "rele ase",
      "ro le",
      "al though",
      "mo ve",
      "in it",
      "th or",
      "vide o",
      "w ind",
      "us h",
      "s ay",
      "hal f",
      "201 0",
      "h ip",
      "in es",
      "b ur",
      "est ab",
      "c ame",
      "z e",
      "c or",
      "Wil liam",
      "rop ical",
      "continu ed",
      "S er",
      "w om",
      "r ound",
      "2 3",
      "H er",
      "l aw",
      "p s",
      "w in",
      "An d",
      "ain ing",
      "cr aft",
      "n a",
      "u c",
      "ain s",
      "ri but",
      "n ing",
      "ul ation",
      "h um",
      "pos ed",
      "s ou",
      "us s",
      "h owever",
      "r is",
      "end ing",
      "on es",
      "2 7",
      "it ary",
      "ch ed",
      "200 8",
      "inn ing",
      "f ac",
      "of ten",
      "200 9",
      "y ou",
      "Ge or",
      "fe w",
      "r al",
      "im es",
      "e qu",
      "ist er",
      "amp ion",
      "al i",
      "t ake",
      "r ad",
      "st ri",
      "m ag",
      "fri end",
      "2 8",
      "loc al",
      "play er",
      "sim ilar",
      "201 1",
      "s en",
      "F ran",
      "am ong",
      "E ar",
      "A ir",
      "produ ction",
      "be g",
      "M ich",
      "p ite",
      "for ce",
      "D es",
      "w ent",
      "differ ent",
      "w ood",
      "i or",
      "i x",
      "In ter",
      "B ar",
      "ch ang",
      "pos si",
      "mis sion",
      "on y",
      "Eng land",
      "2 6",
      "o ve",
      "Ch ar",
      "at ic",
      "stor m",
      "4 0",
      "er y",
      "f urther",
      "str ong",
      "O ne",
      "wee k",
      "n ight",
      "consid ered",
      "comp any",
      "le vel",
      "M us",
      "st y",
      "ser ved",
      "D av",
      "id es",
      "200 7",
      "po st",
      "id ed",
      "ic es",
      "care er",
      "a ver",
      "H ar",
      "f ire",
      "pro vid",
      "h aving",
      "C ity",
      "ive ly",
      "E ast",
      "g ed",
      "for t",
      "P ark",
      "act ion",
      "ex p",
      "comm un",
      "tr ad",
      "Eng lish",
      "te le",
      "u ck",
      "b as",
      "f ron",
      "ever y",
      "ent er",
      "cl ub",
      "with out",
      "hist ory",
      "Al though",
      "re fer",
      "h old",
      "iv es",
      "st udi",
      "writ ten",
      "w ide",
      "201 2",
      "be come",
      "Sc ot",
      "land s",
      "ste ad",
      "op s",
      "bo ard",
      "F r",
      "res pon",
      "L ond",
      "in flu",
      "in k",
      "re et",
      "Lond on",
      "grap h",
      "s ound",
      "An g",
      "f oot",
      "gg est",
      "W ith",
      "in vol",
      "R iver",
      "su ggest",
      "B att",
      "un g",
      "2 9",
      "19 0",
      "S o",
      "giv en",
      "ann oun",
      "ing ton",
      "qu e",
      "pr of",
      "di vid",
      "t ro",
      "oun g",
      "E x",
      "b us",
      "is s",
      "m and",
      "w ant",
      "ke y",
      "re en",
      "M o",
      "chan ge",
      "build ing",
      "com b",
      "Can ad",
      "H igh",
      "im p",
      "f ather",
      "g ave",
      "success ful",
      "T e",
      "an im",
      "com mon",
      "publ ished",
      "N e",
      "Un iversity",
      "T o",
      "cl ose",
      "im port",
      "st ated",
      "se ven",
      "c op",
      "S y",
      "ren t",
      "su re",
      "ne ver",
      "Wh ile",
      "g ood",
      "d ri",
      "ail ed",
      "return ed",
      "a i",
      "b or",
      "produ ced",
      "to tal",
      "u g",
      "P ol",
      "be h",
      "im ent",
      "a e",
      "coun try",
      "f ace",
      "s w",
      "om in",
      "pro te",
      "F l",
      "ev ed",
      "h our",
      "f r",
      "fin d",
      "aw ay",
      "pop ular",
      "qu ad",
      "de l",
      "s it",
      "to ur",
      "report ed",
      "are n",
      "D iv",
      "om et",
      "ab ly",
      "200 6",
      "lo st",
      "pro gram",
      "comp os",
      "g reat",
      "a ign",
      "partic ular",
      "way s",
      "dr aw",
      "ve st",
      "m aking",
      "C or",
      "incl ude",
      "au thor",
      "Ac cording",
      "de cl",
      "inter est",
      "record ed",
      "ch n",
      "h ow",
      "stru ct",
      "in du",
      "ver s",
      "D r",
      "for ces",
      "arri ed",
      "ne ed",
      "v ict",
      "dire ct",
      "f le",
      "ur rican",
      "pl an",
      "olog y",
      "b ody",
      "ition s",
      "b ar",
      "s ite",
      "a ur",
      "sh ould",
      "am a",
      "pl oy",
      "serv ice",
      "qu ar",
      "performan ce",
      "su ff",
      "di ed",
      "mo der",
      "Ph il",
      "te en",
      "um ent",
      "tim es",
      "Th ese",
      "s oci",
      "cap t",
      "o x",
      "com ing",
      "gr ad",
      "air craft",
      "R oy",
      "him self",
      "201 3",
      "p en",
      "mil itary",
      "ro ck",
      "int ro",
      "Austral ia",
      "dep end",
      "f lo",
      "batt le",
      "n ed",
      "s um",
      "J ack",
      "te ll",
      "re w",
      "ag re",
      "n et",
      "ro om",
      "f an",
      "song s",
      "f un",
      "P res",
      "mem ber",
      "p ur",
      "A m",
      "in ess",
      "crit ic",
      "develop ment",
      "an a",
      "ele ct",
      "Gen eral",
      "St ate",
      "R ep",
      "se arch",
      "x im",
      "a ul",
      "fron t",
      "re present",
      "al th",
      "ast er",
      "M in",
      "en ed",
      "lo ok",
      "18 9",
      "B C",
      "it ive",
      "it ch",
      "a el",
      "J ames",
      "hist or",
      "develop ed",
      "ak es",
      "ac y",
      "g es",
      "ist r",
      "med i",
      "contro l",
      "intro du",
      "dest roy",
      "child ren",
      "g l",
      "S w",
      "s l",
      "remain ed",
      "n al",
      "ch art",
      "st ar",
      "R om",
      "charac ters",
      "Ar my",
      "ran ge",
      "f av",
      "pt ion",
      "v ir",
      "tit le",
      "month s",
      "6 0",
      "cle ar",
      "S m",
      "ith er",
      "m m",
      "camp aign",
      "oc cur",
      "u es",
      "urrican e",
      "Le ague",
      "e y",
      "is ing",
      "c ult",
      "tak en",
      "en se",
      "ge ther",
      "e ight",
      "r ap",
      "v an",
      "re am",
      "comp et",
      "fel t",
      "b an",
      "c ir",
      "t ropical",
      "ab ility",
      "ac ross",
      "sign ific",
      "writ ing",
      "se en",
      "pro ject",
      "dis c",
      "om b",
      "er ing",
      "S u",
      "ot s",
      "st ation",
      "br idge",
      "g est",
      "to o",
      "C ap",
      "appear ed",
      "announ ced",
      "Amer ica",
      "pr a",
      "not ed",
      "pe c",
      "t ar",
      "Div ision",
      "Geor ge",
      "al ter",
      "reach ed",
      "T w",
      "ap point",
      "ex peri",
      "c il",
      "cre ated",
      "Coun ty",
      "act iv",
      "are as",
      "H en",
      "tele vision",
      "work s",
      "us es",
      "Japan ese",
      "200 5",
      "f ight",
      "g in",
      "Ro ad",
      "il le",
      "s aw",
      "per formed",
      "pr im",
      "co st",
      "var ious",
      "polit ical",
      "le ct",
      "comple te",
      "follow ed",
      "St reet",
      "bre ak",
      "ful l",
      "in v",
      "h or",
      "it ing",
      "P er",
      "play ers",
      "r ace",
      "tr ave",
      "sty le",
      "al ity",
      "201 4",
      "cover ed",
      "ard ed",
      "ag o",
      "M a",
      "pro cess",
      "bl ack",
      "ab or",
      "m ph",
      "mi x",
      "m ot",
      "m b",
      "ant ic",
      "kill ed",
      "point s",
      "hel p",
      "ie f",
      "w all",
      "M ad",
      "an ces",
      "i ble",
      "l ished",
      "through out",
      "h it",
      "li ve",
      "s ess",
      "lin es",
      "to gether",
      "de but",
      "be t",
      "form ation",
      "te chn",
      "lit tle",
      "se x",
      "h ar",
      "st at",
      "estab lished",
      "signific ant",
      "f em",
      "n on",
      "me et",
      "b road",
      "iz ation",
      "co ast",
      "Th om",
      "though t",
      "constru ction",
      "ic ult",
      "be l",
      "o to",
      "mil es",
      "p air",
      "ear li",
      "do es",
      "Re g",
      "im pro",
      "en ced",
      "Dav id",
      "av al",
      "Mich ael",
      "tr a",
      "ent ire",
      "Austral ian",
      "b orn",
      "r ain",
      "st age",
      "p ain",
      "ac c",
      "f ar",
      "is sion",
      "y oung",
      "v oc",
      "g ot",
      "od es",
      "rel ation",
      "P art",
      "spec ial",
      "R ich",
      "E l",
      "r oute",
      "con om",
      "wom en",
      "dec ided",
      "at ors",
      "con ne",
      "B ill",
      "Y ou",
      "ca used",
      "start ed",
      "c ase",
      "iv il",
      "play ing",
      "gen eral",
      "feat ures",
      "M ed",
      "S an",
      "g row",
      "wh ite",
      "event ually",
      "sc ri",
      "se ll",
      "h o",
      "on ce",
      "H ouse",
      "amp le",
      "man ag",
      "av es",
      "te e",
      "ist ed",
      "cre w",
      "ul l",
      "s old",
      "h ost",
      "F in",
      "fe et",
      "Roy al",
      "Q u",
      "open ed",
      "add ed",
      "al d",
      "st ant",
      "moder n",
      "loc ated",
      "ter min",
      "id ence",
      "18 8",
      "H ist",
      "p at",
      "quad ron",
      "b ase",
      "ampion ship",
      "i fe",
      "ree k",
      "S ome",
      "in stead",
      "r ing",
      "It al",
      "it ar",
      "ens ive",
      "var i",
      "in j",
      "import ant",
      "pe ak",
      "cl os",
      "the ast",
      "se ction",
      "Mus ic",
      "cre t",
      "ut es",
      "Bl ack",
      "w ord",
      "D on",
      "comple ted",
      "possi ble",
      "h on",
      "oc ial",
      "Com p",
      "m oun",
      "end s",
      "work ed",
      "o v",
      "c ross",
      "in ation",
      "c ause",
      "M y",
      "cur rent",
      "oth ers",
      "pop ulation",
      "one y",
      "f ree",
      "200 4",
      "m ater",
      "au di",
      "y ing",
      "pr ed",
      "M al",
      "B el",
      "f ig",
      "ll ed",
      "lead ing",
      "u el",
      "S ch",
      "p ie",
      "ot ed",
      "ra ther",
      "ty p",
      "P o",
      "d on",
      "qu est",
      "L u",
      "l oss",
      "gun s",
      "beh ind",
      "ch urch",
      "t re",
      "B er",
      "Ro bert",
      "up on",
      "ce ed",
      "pr act",
      "for ced",
      "H ol",
      "3 1",
      "d le",
      "com ment",
      "l ack",
      "er a",
      "mo ther",
      "in vest",
      "Fr ance",
      "as k",
      "f if",
      "201 5",
      "in ch",
      "he avy",
      "C ent",
      "li e",
      "v ill",
      "e cut",
      "part y",
      "ay s",
      "res pect",
      "A ct",
      "S chool",
      "sub sequ",
      "no vel",
      "m ing",
      "pro ble",
      "kn ow",
      "R uss",
      "diff icult",
      "ac cept",
      "re ve",
      "W ash",
      "A b",
      "Ang el",
      "work ing",
      "se par",
      "hum an",
      "V i",
      "ass oci",
      "jo ined",
      "wee ks",
      "ter m",
      "Hen ry",
      "y n",
      "sc ene",
      "7 0",
      "at a",
      "origin ally",
      "av ail",
      "h ard",
      "col l",
      "og n",
      "sc ored",
      "al most",
      "or ies",
      "pres sion",
      "as ing",
      "N A",
      "dam age",
      "allow ed",
      "H am",
      "t ies",
      "Batt le",
      "ang u",
      "in st",
      "m ass",
      "A le",
      "four th",
      "sp ir",
      "E m",
      "B est",
      "appro ach",
      "read y",
      "ign ed",
      "provid ed",
      "eng ine",
      "go al",
      "C r",
      "iv al",
      "op e",
      "i als",
      "3 5",
      "claim ed",
      "am ent",
      "8 0",
      "in o",
      "d rop",
      "F ir",
      "want ed",
      "low er",
      "reg ular",
      "V ir",
      "em ploy",
      "P aul",
      "c up",
      "P ort",
      "am b",
      "br ought",
      "R ed",
      "trad ition",
      "n at",
      "in divid",
      "Q ue",
      "feat ured",
      "5 00",
      "Pres ident",
      "C our",
      "le ast",
      "ce ll",
      "w ife",
      "la un",
      "g ar",
      "e conom",
      "he st",
      "aver age",
      "M il",
      "pass ed",
      "so on",
      "a ut",
      "bus iness",
      "to wards",
      "su per",
      "T V",
      "reg ion",
      "run s",
      "cr ed",
      "Wash ington",
      "rec ogn",
      "ap s",
      "b al",
      "tem por",
      "crit ics",
      "west ern",
      "Pl ay",
      "az ine",
      "qu ick",
      "e ither",
      "off ice",
      "est im",
      "ct s",
      "s our",
      "18 6",
      "con tract",
      "prof ess",
      "red u",
      "l eng",
      "pl ann",
      "M or",
      "de fe",
      "cour t",
      "form s",
      "ex ample",
      "em y",
      "coun ter",
      "mer c",
      "r ail",
      "r id",
      "n omin",
      "O ther",
      "M ac",
      "ul a",
      "tro ops",
      "f oc",
      "ic ated",
      "comp an",
      "fin ished",
      "R es",
      "c ing",
      "n ia",
      "h om",
      "ar my",
      "d ou",
      "id s",
      "J e",
      "Des pite",
      "con cl",
      "200 3",
      "F ollow",
      "r ul",
      "fe el",
      "ad es",
      "gener ally",
      "sh ot",
      "m ult",
      "as y",
      "D an",
      "pro per",
      "G ame",
      "con du",
      "cir c",
      "b ill",
      "G l",
      "p ly",
      "w he",
      "de t",
      "Col le",
      "ap er",
      "ev ents",
      "ic o",
      "leng th",
      "beli eved",
      "com pl",
      "f ed",
      "m un",
      "C up",
      "cer t",
      "b es",
      "f re",
      "partic ip",
      "Fir st",
      "Follow ing",
      "os p",
      "ke ep",
      "i us",
      "part s",
      "se a",
      "al ed",
      "m al",
      "H ill",
      "M ary",
      "f und",
      "ant i",
      "St ar",
      "sc en",
      "n ine",
      "vict ory",
      "re placed",
      "ent ion",
      "b ound",
      "n el",
      "design ed",
      "avail able",
      "is land",
      "ict ion",
      "offic ial",
      "D ep",
      "con c",
      "hour s",
      "Europe an",
      "invol ved",
      "se le",
      "p ing",
      "pres ident",
      "Tw o",
      "open ing",
      "ev ol",
      "pr ison",
      "L ou",
      "it or",
      "olog ical",
      "st op",
      "as ked",
      "ent ial",
      "cer tain",
      "turn ed",
      "t ic",
      "com es",
      "ex ecut",
      "ex ist",
      "t or",
      "dire ctor",
      "h ous",
      "h ab",
      "er ous",
      "say ing",
      "b ri",
      "al k",
      "S un",
      "th reat",
      "i ence",
      "oun t",
      "appear ance",
      "port s",
      "comm it",
      "200 0",
      "4 5",
      "7 5",
      "ist ic",
      "lo ve",
      "ig hest",
      "cy cl",
      "st one",
      "p ark",
      "min utes",
      "lar gest",
      "writ er",
      "Rom an",
      "M er",
      "w atch",
      "high way",
      "sou thern",
      "R oute",
      "te l",
      "Scot t",
      "t aking",
      "sur vi",
      "go ing",
      "ubl ic",
      "h ighest",
      "earli er",
      "F rom",
      "200 1",
      "M id",
      "init ially",
      "ish ing",
      "per cent",
      "particular ly",
      "tr aining",
      "s il",
      "At l",
      "v ice",
      "m ir",
      "le ar",
      "n d",
      "c al",
      "ers hip",
      "S ing",
      "Wh ite",
      "ly ing",
      "ed uc",
      "m ust",
      "Ch urch",
      "ord ered",
      "ass ist",
      "issu e",
      "Char les",
      "King dom",
      "N avy",
      "iz e",
      "M art",
      "V al",
      "h a",
      "grap hy",
      "sign ed",
      "b it",
      "D o",
      "h ib",
      "p ot",
      "we ak",
      "ate g",
      "bo x",
      "Thom as",
      "p ond",
      "s ocial",
      "tri es",
      "cent ral",
      "th us",
      "O ff",
      "ut ure",
      "studi o",
      "main tain",
      "pra ised",
      "pe cted",
      "H all",
[...]
